'<pad>_'
'<EOS>_'
', _'
'._'
'the_'
'a_'
'_'
'of_'
'to_'
'and_'
'in_'
's_'
'v_'
'se_'
'is_'
'-_'
'na_'
'that_'
'for_'
'y_'
'je_'
'by_'
'o_'
'on_'
'že_'
'The_'
'i_'
'u_'
'e_'
'. _'
' (_'
'be_'
'/_'
'it_'
'with_'
'are_'
''_'
'I_'
'as_'
'pro_'
't_'
'k_'
': _'
') _'
' - _'
'do_'
'not_'
'at_'
'was_'
'í_'
'this_'
'or_'
'é_'
'm_'
'from_'
'z_'
'?_'
'you_'
'have_'
'an_'
'ing_'
'we_'
'á_'
'will_'
'Hotel_'
've_'
'ou_'
'ch_'
'has_'
'which_'
'ed_'
' – _'
'hotel_'
'd_'
'’_'
'za_'
' _'
'ů_'
'European_'
'ě_'
'jsou_'
'které_'
'ho_'
'all_'
'nebo_'
'1_'
' ._'
'si_'
'their_'
'can_'
'jako_'
'2_'
'would_'
'"_'
'aby_'
'but_'
'l_'
'ý_'
'em_'
'its_'
'A_'
'more_'
'our_'
'also_'
'ých_'
'(_'
'EU_'
'ale_'
'3_'
' , _'
'one_'
',_'
'very_'
'In_'
'; _'
'they_'
'V_'
'been_'
'It_'
'es_'
':_'
'být_'
'po_'
'ní_'
'This_'
'should_'
'were_'
'n_'
'ly_'
'ze_'
'only_'
'4_'
'there_'
'5_'
'other_'
'no_'
'me_'
'ého_'
'bude_'
'tak_'
'od_'
'out_'
'like_'
'Commission_'
'li_'
'který_'
'up_'
'must_'
'We_'
';_'
'than_'
'r_'
'his_'
'!_'
'he_'
'která_'
'než_'
'mi_'
'had_'
'jak_'
'about_'
'ce_'
'jsem_'
'if_'
'so_'
'co_'
'your_'
'má_'
')._'
'time_'
'countries_'
'us_'
'al_'
'la_'
'who_'
'To_'
'new_'
'však_'
'jejich_'
'), _'
'musí_'
'te_'
'také_'
'into_'
'when_'
'such_'
'ým_'
'room_'
'Europe_'
'my_'
'ím_'
'what_'
'good_'
'States_'
'mezi_'
'."_'
'people_'
'But_'
'Member_'
'any_'
' "_'
'Komise_'
'této_'
'most_'
'these_'
'them_'
'jeho_'
'may_'
'President_'
'6_'
'after_'
'er_'
'de_'
'jí_'
')_'
'mu_'
'well_'
'just_'
'en_'
'could_'
'bylo_'
'rooms_'
'some_'
'stay_'
'ům_'
'world_'
'use_'
'jen_'
'Mr_'
'need_'
'jsme_'
'ng_'
'now_'
'com_'
'00_'
'Je_'
'byl_'
'pokoje_'
'24_'
'při_'
'byla_'
'0_'
'může_'
'between_'
'many_'
'If_'
'není_'
'economic_'
'years_'
'% _'
'Union_'
'Hodnocení_'
'pokud_'
'shall_'
'10_'
'své_'
'hostů_'
'over_'
'two_'
'because_'
'ke_'
'way_'
'Council_'
'ne_'
'let_'
' „_'
'když_'
'7_'
'where_'
'first_'
'země_'
'even_'
'make_'
'před_'
'those_'
'location_'
'8_'
'right_'
'Article_'
'Booking_'
'g_'
'nám_'
'ání_'
'bych_'
'system_'
'S_'
' “_'
'státy_'
'ém_'
'No_'
'US_'
'proti_'
'podle_'
'work_'
'už_'
'né_'
'said_'
'uje_'
'You_'
'report_'
'Evropské_'
'budou_'
'Parliament_'
'staff_'
'toho_'
'ky_'
'reviews_'
' — _'
'under_'
'important_'
'tím_'
'Pokud_'
'year_'
'c_'
'her_'
'" _'
'market_'
'oblasti_'
'tohoto_'
'ové_'
'ovat_'
'made_'
'," _'
'take_'
'see_'
'financial_'
'opatření_'
'country_'
'information_'
'policy_'
'support_'
'ty_'
'ými_'
'within_'
'much_'
'ion_'
'how_'
'unie_'
'protože_'
'9_'
'political_'
'tomu_'
'další_'
'free_'
'public_'
'against_'
'více_'
'velmi_'
'long_'
'ještě_'
'ani_'
'being_'
'mají_'
'ení_'
'EUR_'
'tento_'
'2008_'
'hotelu_'
'až_'
'vám_'
'city_'
'roce_'
'He_'
're_'
' / _'
' [[_'
'20_'
'able_'
'ích_'
'všech_'
'am_'
'per_'
'ci_'
'There_'
'h_'
'il_'
'cí_'
'kteří_'
'case_'
'tyto_'
'či_'
'For_'
'těchto_'
'ně_'
'byly_'
'ka_'
'down_'
'then_'
'before_'
'know_'
'day_'
'2007_'
'mohou_'
'When_'
'2009_'
' ..._'
'roku_'
'English_'
'již_'
'energy_'
'nařízení_'
'kdy_'
'centre_'
'2006_'
'What_'
'As_'
'předsedající_'
'bez_'
'Rooms_'
'through_'
'own_'
'12_'
'set_'
'pouze_'
'international_'
'great_'
'used_'
'too_'
'rozhodnutí_'
'does_'
'ují_'
'případě_'
'naši_'
'le_'
'available_'
'All_'
'tomto_'
'kde_'
'him_'
'same_'
'located_'
'government_'
'dne_'
'C_'
'service_'
'což_'
'less_'
'including_'
'ech_'
'both_'
'Room_'
'Regulation_'
'tu_'
'ku_'
'They_'
'global_'
'ation_'
'proto_'
'place_'
'area_'
'want_'
'measures_'
'všechny_'
'Service_'
'15_'
'tom_'
'st_'
'possible_'
'zejména_'
'China_'
'That_'
'Na_'
'EC_'
'last_'
' | _'
'zemí_'
'služba_'
'back_'
'řízení_'
'možné_'
'finanční_'
'development_'
'států_'
'part_'
'here_'
'USA_'
'' _'
'still_'
'rámci_'
'ému_'
'stále_'
'did_'
'breakfast_'
'power_'
'get_'
'And_'
'social_'
'Tento_'
'ES_'
'Zařízení_'
'. - (_'
'mít_'
'lo_'
'close_'
'Community_'
'ování_'
'order_'
'think_'
'pobytu_'
'United_'
'ější_'
'while_'
'rights_'
'p_'
'tedy_'
'rád_'
'ek_'
'guest_'
'offers_'
'national_'
'change_'
'č_'
'without_'
'..._'
'high_'
'Bar_'
'30_'
'třeba_'
'number_'
'access_'
'ies_'
'2005_'
'point_'
'level_'
'- _'
'view_'
'dnes_'
'small_'
'|_'
'costs_'
'50_'
' % _'
'&_'
'go_'
'non_'
'jež_'
'growth_'
'say_'
'during_'
'example_'
'11_'
'help_'
'160_'
'tion_'
'2004_'
'„_'
'today_'
'submitted_'
'posílají_'
'law_'
'zákazníci_'
'each_'
'ji_'
'Czech_'
'course_'
'ami_'
'Když_'
' & _'
'její_'
'” _'
'ry_'
'pak_'
'crisis_'
'Rady_'
'ers_'
'ám_'
'data_'
'jde_'
'D_'
'she_'
'rs_'
'politiky_'
'kterou_'
'cannot_'
'services_'
'end_'
'find_'
'pokojů_'
'tato_'
'měla_'
'lidí_'
'away_'
'aid_'
'členských_'
'el_'
'Fax_'
'three_'
'?"_'
'means_'
'far_'
'economy_'
'already_'
'particular_'
'nové_'
'since_'
'000_'
'pane_'
'customers_'
'best_'
'Business_'
'products_'
'next_'
'jste_'
'state_'
'osti_'
'Pane_'
'few_'
'práva_'
'řešení_'
'ost_'
'&#_'
'společnosti_'
'nbsp_'
'Jak_'
'měli_'
'friendly_'
'human_'
'children_'
'better_'
'Facilities_'
'legal_'
'future_'
'term_'
'strany_'
'“ _'
'x_'
'et_'
'byste_'
'based_'
'ta_'
'lze_'
'current_'
'E_'
'security_'
'ny_'
'comfortable_'
'ách_'
'měl_'
'business_'
'provide_'
'mě_'
'health_'
' '_'
'trade_'
'problem_'
'another_'
'ts_'
'taken_'
'man_'
'language_'
'děti_'
'den_'
'bychom_'
'tuto_'
'therefore_'
'life_'
'Evropská_'
'Co_'
'citizens_'
'systému_'
'price_'
'night_'
'come_'
'um_'
'modern_'
'informace_'
'svou_'
'old_'
'ním_'
'every_'
'Guest_'
'základě_'
'nás_'
'put_'
'list_'
'fact_'
'excellent_'
'Všechny_'
'form_'
'common_'
'heart_'
'question_'
'právní_'
'court_'
'clear_'
'během_'
'ble_'
'rovněž_'
'again_'
'P_'
'large_'
'different_'
'hours_'
'evropské_'
'around_'
']] _'
'zde_'
'toto_'
'might_'
'believe_'
'areas_'
'However_'
'star_'
'really_'
'paní_'
'little_'
'větší_'
'přístup_'
'needs_'
'conditions_'
' ( _'
'pomoci_'
'mnoho_'
'interest_'
'following_'
'clean_'
'například_'
'become_'
'b_'
'ons_'
'State_'
'America_'
'zařízení_'
'ten_'
'real_'
'process_'
'pod_'
'ila_'
'value_'
'včetně_'
'left_'
'rules_'
'off_'
'internet_'
'central_'
'Desk_'
' _'
'ční_'
'whether_'
'nt_'
'major_'
'however_'
'25_'
'avi_'
'minutes_'
'main_'
'll_'
'protection_'
'musíme_'
'dispozici_'
'situation_'
'krize_'
'especially_'
'kdo_'
'certain_'
'abychom_'
'stát_'
'K_'
'Committee_'
'zemích_'
'návrh_'
'ná_'
'money_'
'ment_'
'T_'
'ské_'
'parlamentu_'
'nou_'
'least_'
'Evropě_'
'’ _'
'risk_'
'helpful_'
'Toto_'
'vlády_'
'nad_'
'given_'
'trhu_'
'souladu_'
'Společenství_'
'necessary_'
'prostředí_'
'nejsou_'
'decision_'
'O_'
'vlastní_'
'ných_'
'nyní_'
'food_'
'facilities_'
'práv_'
'první_'
'ensure_'
'veřejné_'
'result_'
'program_'
'problems_'
'něco_'
'ic_'
'zda_'
'walk_'
'pomoc_'
'using_'
'person_'
'jim_'
'práce_'
'going_'
'důležité_'
'systém_'
'led_'
'agreement_'
'So_'
'Evropského_'
'nabízí_'
'Directive_'
' '
'third_'
'směrnice_'
'období_'
'100_'
'near_'
'ají_'
'On_'
'Ale_'
'nice_'
'air_'
'. - _'
'water_'
'služby_'
'podporu_'
'ions_'
'Tato_'
'At_'
'18_'
'lidé_'
'km_'
'jeden_'
'Proto_'
'Group_'
'právo_'
'American_'
'why_'
'regard_'
'open_'
'neboť_'
'low_'
'further_'
'enough_'
'Z_'
'Ve_'
'words_'
'světě_'
'svých_'
'short_'
'měly_'
'full_'
'found_'
'řekl_'
'station_'
'rate_'
'needed_'
'don_'
'Treaty_'
'Russia_'
'sector_'
'příliš_'
'ný_'
'ních_'
'nich_'
'issue_'
'Kdy_'
'cích_'
'16_'
'14_'
'části_'
'členské_'
'recepci_'
'proposal_'
'L_'
'věci_'
'vysoké_'
'skupiny_'
'action_'
'ti_'
'mezinárodní_'
'jiné_'
'vás_'
'provided_'
'family_'
'done_'
'always_'
'Hostelsclub_'
'working_'
'role_'
'zemi_'
'transport_'
'můžete_'
'možnost_'
'effective_'
'check_'
'basis_'
'authorities_'
'stejně_'
'odst_'
'making_'
'Smoking_'
'Nekuřácké_'
'ící_'
'přicestoval_'
'pomocí_'
'having_'
'Centre_'
'town_'
'systems_'
'private_'
'application_'
'These_'
'name_'
'institutions_'
'control_'
'climate_'
'called_'
'budget_'
'terms_'
'prostřednictvím_'
'ová_'
'ity_'
'ie_'
'ceny_'
'13_'
'reception_'
'problém_'
'cílem_'
'ted_'
'run_'
'mnohem_'
'give_'
'Úschovna_'
'something_'
'rok_'
'právě_'
'policies_'
'easy_'
'druhé_'
'íme_'
'způsobem_'
'ubytování_'
'account_'
'II_'
'40_'
'second_'
'respect_'
'letech_'
'banks_'
'.”_'
'tam_'
'místo_'
'méně_'
'local_'
'hodinová_'
'době_'
'th_'
'often_'
'investment_'
'building_'
'Internet_'
'France_'
'DE_'
' [_'
'svého_'
'region_'
'ia_'
'globální_'
'f_'
'Evropa_'
'17_'
'čl_'
'war_'
'total_'
'sociální_'
'politické_'
'nic_'
'cooperation_'
'Breakfast_'
'B_'
'writing_'
'period_'
'issues_'
'dobře_'
'New_'
'start_'
'debate_'
'Za_'
'Trezor_'
'Court_'
'skutečně_'
'růst_'
'particularly_'
'možná_'
'já_'
'Friendly_'
'2003_'
'): _'
'million_'
'With_'
'teď_'
'státu_'
'markets_'
'increase_'
'dětí_'
'cases_'
'ally_'
'Safety_'
'zajistit_'
'stojí_'
'problémy_'
'line_'
'centrum_'
'One_'
'Commissioner_'
'znamená_'
'site_'
'resources_'
'never_'
'debt_'
'among_'
'R_'
'Non_'
'Komisi_'
'státech_'
'situated_'
'naše_'
'home_'
'London_'
'Evropy_'
'zavazadel_'
'single_'
'quality_'
'prices_'
'once_'
'ge_'
'ší_'
'vá_'
'ting_'
'reason_'
'ra_'
'page_'
'key_'
'accordance_'
'Our_'
'Debian_'
'Central_'
' $_'
'š_'
'úrovni_'
'women_'
'vůči_'
'všichni_'
'recent_'
'hope_'
'bank_'
'approach_'
'Germany_'
'several_'
'pay_'
'governments_'
'either_'
'days_'
'byli_'
'bar_'
'vote_'
'times_'
'tax_'
'svůj_'
'restaurant_'
'jednání_'
'billion_'
'Pro_'
'Parlamentu_'
'M_'
'specific_'
'matter_'
'capital_'
'Výtah_'
'Topení_'
'She_'
'2010_'
'článku_'
'často_'
'téměř_'
'odvětví_'
'itself_'
'equipment_'
'dalších_'
'Check_'
'Airport_'
'sti_'
'programu_'
'position_'
'parking_'
'ových_'
'nových_'
'mnoha_'
'look_'
'include_'
'ili_'
'hand_'
'greater_'
'general_'
'dále_'
'ální_'
'změny_'
'situaci_'
'seznam_'
'mohla_'
'fully_'
'almost_'
'19_'
'special_'
'rather_'
'men_'
'members_'
'Front_'
'60_'
'zprávy_'
'znovu_'
'states_'
'regional_'
'continue_'
'big_'
'Western_'
'Prádelna_'
'22_'
'... _'
'ující_'
'oval_'
'jící_'
'companies_'
'U_'
'Pokojová_'
'Gay_'
'though_'
'ohledem_'
'některých_'
'ala_'
'activities_'
'Půjčovna_'
'D'
'žádné_'
'zcela_'
'until_'
'ochranu_'
'ily_'
'hospodářské_'
'foreign_'
'Storage_'
'růstu_'
'orgány_'
'městě_'
'mohl_'
'experience_'
'asked_'
'Bank_'
'velké_'
'present_'
'náklady_'
'environment_'
'Public_'
'Po_'
'Článek_'
'whole_'
'rates_'
'moci_'
'dva_'
'Kopírka_'
'Hour_'
'“._'
'situace_'
'poor_'
'management_'
'group_'
'Do_'
'/ _'
'skutečnosti_'
'především_'
'několik_'
'hostels_'
'ever_'
'energie_'
'2000_'
'together_'
'others_'
'mohli_'
'hard_'
'face_'
'date_'
'create_'
'zprávu_'
'yet_'
'tí_'
'trh_'
'things_'
'světa_'
'soukromé_'
'proč_'
'outside_'
'cost_'
'accommodation_'
'above_'
'Restaurant_'
'Deposit_'
'Box_'
'strong_'
'standard_'
'production_'
'offer_'
'industry_'
'century_'
'2002_'
'que_'
'hlasování_'
'dohody_'
'banky_'
'TV_'
'H'
'.“_'
'zpráva_'
'schůze_'
'quite_'
'pracovní_'
'kterým_'
'informací_'
'difficult_'
'age_'
'G_'
'23_'
' ... _'
'“_'
'society_'
'research_'
'práci_'
'použití_'
'návrhu_'
'les_'
'sure_'
'straně_'
'side_'
'prostředky_'
'podmínky_'
'nejen_'
'lepší_'
'ké_'
'cíle_'
'ace_'
'M'
'provides_'
'os_'
'opportunity_'
'military_'
'framework_'
'euro_'
'dokonce_'
'amount_'
'] _'
'"._'
'týkající_'
'subject_'
'rozvoj_'
'ous_'
'ors_'
'mělo_'
'history_'
'gas_'
'ent_'
'airport_'
'ago_'
'[_'
'Windows_'
'T'
'P'
'Luggage_'
'2001_'
'vždy_'
'vláda_'
'resolution_'
'pool_'
'parties_'
'ního_'
'kind_'
'individual_'
'evropských_'
'dobu_'
'\u_'
'Rental_'
'Organizace_'
'Heating_'
'souvislosti_'
'show_'
'rychle_'
'product_'
'ovi_'
'několika_'
'natural_'
'impact_'
'four_'
'child_'
'body_'
'bankety_'
'My_'
'By_'
'čas_'
'vyšší_'
'type_'
'tisk_'
'taking_'
'politiku_'
'past_'
'otázky_'
'oil_'
'některé_'
'model_'
'income_'
'force_'
'bezpečnosti_'
'ate_'
'adopted_'
'Restaurace_'
'Podle_'
'27_'
'úsilí_'
'towards_'
'služeb_'
'přímo_'
'nikdy_'
'nemůže_'
'máme_'
'later_'
'got_'
'education_'
'chtěl_'
'call_'
'attention_'
'Republic_'
'zároveň_'
'text_'
'soud_'
'safety_'
'písemně_'
'nároky_'
'ni_'
'longer_'
'file_'
'dosáhnout_'
'developing_'
'changes_'
'Laundry_'
'ího_'
'various_'
'leaders_'
'klimatu_'
'dvou_'
'celkem_'
'ací_'
'Tyto_'
'Park_'
'Paní_'
'Indeed_'
'French_'
'Elevator_'
'After_'
'21_'
'views_'
'unii_'
'required_'
'pánové_'
'light_'
'democracy_'
'concerned_'
'charged_'
'appropriate_'
'thing_'
'samozřejmě_'
'quiet_'
'party_'
'našich_'
'místě_'
'kdyby_'
'jménem_'
'jiných_'
'higher_'
'credit_'
'cena_'
'beautiful_'
'Private_'
'w_'
'ship_'
'share_'
'bed_'
'Services_'
'Linux_'
'Iran_'
'How_'
'B'
'seems_'
'přes_'
'posledních_'
'nový_'
'navíc_'
'legislation_'
'kou_'
'každý_'
'apply_'
'address_'
'Snídaně_'
'Rezervace_'
'General_'
'ění_'
'walking_'
'svým_'
'střední_'
'provisions_'
'ovšem_'
'nothing_'
'ise_'
'distance_'
'da_'
'class_'
'celém_'
'car_'
'avšak_'
'Pokoje_'
'takové_'
'procedure_'
'politika_'
'pan_'
'nce_'
'ice_'
'eme_'
'efforts_'
'democratic_'
'K'
'90_'
'welcome_'
'spolupráce_'
'opinion_'
'ling_'
'interests_'
'hlavní_'
'field_'
'evidence_'
'etc_'
'ekonomiky_'
'V'
'Evropský_'
'Čistírna_'
'té_'
'století_'
'step_'
'significant_'
'reduce_'
'představuje_'
'nout_'
'forward_'
'extra_'
'du_'
'dolarů_'
'Photocopying_'
'soudu_'
'podpory_'
'ns_'
'nebude_'
'minute_'
'hvězdičky_'
'finančních_'
'across_'
'World_'
'Parlament_'
'část_'
'tímto_'
'smoking_'
'rapporteur_'
'noc_'
'naší_'
'kvůli_'
'known_'
'feel_'
'came_'
'Meeting_'
'East_'
' %_'
'zdrojů_'
'tři_'
'themselves_'
'stability_'
'ostí_'
'milionů_'
'meeting_'
'jedné_'
'half_'
'didn_'
'Služby_'
'Israel_'
'House_'
'Chcete_'
'80_'
'případech_'
'goods_'
'design_'
'aut_'
'Služba_'
'R'
'O'
'Denní_'
'Chinese_'
'Čína_'
'snížení_'
'referred_'
'postižené_'
'package_'
'nelze_'
'nakonec_'
'months_'
'funds_'
'f'
'document_'
'center_'
'bit_'
'Paris_'
'L'
'software_'
'serious_'
'red_'
'pokoji_'
'pana_'
'občanů_'
'nichž_'
'jednou_'
'ful_'
'front_'
'complete_'
'care_'
'budeme_'
'ar_'
'Jsem_'
'F_'
'Enterprise_'
'žehlení_'
'vat_'
'true_'
'nadále_'
'likely_'
'five_'
'behalf_'
'Lisbon_'
'International_'
'vé_'
'values_'
'son_'
'solution_'
'responsibility_'
'prohlášení_'
'progress_'
'města_'
'move_'
'guests_'
'existuje_'
'early_'
'due_'
'directly_'
'del_'
'bezpečnost_'
'basic_'
'Není_'
'Madam_'
'Fund_'
'FR_'
'Decision_'
'ways_'
'smlouvy_'
'rule_'
'reach_'
'concerning_'
'act_'
'VIP_'
'Italy_'
'workers_'
'wish_'
'víc_'
'tělesně_'
'těch_'
'table_'
'spolupráci_'
'project_'
'nuclear_'
'lot_'
'jej_'
'dvě_'
'der_'
'bring_'
'Rada_'
'Musíme_'
'HDP_'
'ECB_'
'Banquet_'
'31_'
'tě_'
'připojení_'
'personal_'
'organizace_'
'nutné_'
'nejlepších_'
'keep_'
'choice_'
'Spojené_'
'India_'
'G'
'Design_'
'Annex_'
'29_'
'zdraví_'
'standards_'
'road_'
'přístupu_'
'population_'
'otázku_'
'národní_'
'border_'
'ary_'
'West_'
'CD_'
'zvláštní_'
'voted_'
'ustanovení_'
'takže_'
'státní_'
'stop_'
'stanoví_'
'simply_'
'seen_'
'results_'
'provést_'
'prostory_'
'programme_'
'pravidla_'
'plan_'
'perfect_'
'ments_'
'ls_'
'komise_'
'jehož_'
'jasně_'
'implementation_'
'employment_'
'emissions_'
'dy_'
'drive_'
'book_'
'German_'
'1999_'
' ) _'
'základní_'
'reform_'
'počet_'
'poslední_'
'platí_'
'obchodu_'
'kterých_'
'groups_'
'exchange_'
'established_'
'equipped_'
'důsledku_'
'doing_'
'Now_'
'Let_'
'Guests_'
'GDP_'
'Bush_'
'společenství_'
'sice_'
'return_'
'requirements_'
'principle_'
'ostatní_'
'níž_'
'member_'
'ma_'
'lack_'
'kontrolu_'
'ize_'
'ive_'
'improve_'
'final_'
'doby_'
'direct_'
'demand_'
'U'
'THE_'
'Při_'
'! _'
'zprávě_'
'většina_'
'stránky_'
'strategy_'
'společně_'
'současné_'
'potential_'
'podmínek_'
'něj_'
'ness_'
'množství_'
'meet_'
'mean_'
'makes_'
'looking_'
'live_'
'languages_'
'internal_'
'díky_'
'assistance_'
'asi_'
'Very_'
'Spojených_'
'PL_'
'La_'
'F'
'City_'
'28_'
'vzhledem_'
'traditional_'
'ter_'
'pokoj_'
'ohledně_'
'nekuřácké_'
'mohly_'
'mind_'
'miliard_'
'financování_'
'essential_'
'ely_'
'centrální_'
'celé_'
'top_'
'shower_'
'ochrany_'
'obsahuje_'
'mohlo_'
'lidských_'
'ků_'
'jsi_'
'coming_'
'ať_'
'ask_'
'agree_'
'A'
'všem_'
'usnesení_'
'remain_'
'regions_'
'návrhy_'
'muset_'
'idea_'
'i'
'economies_'
'decisions_'
'deal_'
'community_'
'additional_'
'Moreover_'
'June_'
'Japan_'
'J'
'Exchange_'
'Car_'
'velice_'
'týká_'
'ton_'
'thought_'
'ství_'
'regulation_'
'recently_'
'range_'
'přičemž_'
'proceedings_'
'můžeme_'
'increased_'
'house_'
'company_'
'clearly_'
'achieve_'
'Y_'
'Some_'
'N_'
'Dry_'
'Cleaning_'
'British_'
'26_'
'činnosti_'
'zvýšení_'
'turn_'
'proposals_'
'nost_'
'network_'
'media_'
'larger_'
'jejichž_'
'dostupné_'
'benefits_'
'allow_'
'ali_'
'ability_'
'N'
'Iraq_'
'Good_'
'Express_'
'způsob_'
'ubytoven_'
'try_'
'společností_'
'space_'
'soon_'
'size_'
'různých_'
'relations_'
'reasons_'
'procesu_'
'probably_'
'platnost_'
'oblastech_'
'komfortně_'
'investice_'
'hold_'
'důvodu_'
'charge_'
'W'
'Newspapers_'
'Ne_'
'Minister_'
'Ironing_'
'tell_'
'supply_'
'splňuje_'
'ská_'
'safe_'
'předsednictví_'
'procedures_'
'lead_'
'komfortní_'
'jednoho_'
'hodnoty_'
'held_'
'growing_'
'fiscal_'
'everything_'
'dámy_'
'americké_'
'X_'
'Spain_'
'Office_'
'May_'
'C'
', "_'
'", _'
' : _'
'án_'
'ying_'
'test_'
'street_'
'rest_'
'questions_'
'projects_'
'professional_'
'perhaps_'
'parts_'
'nezbytné_'
'negotiations_'
'levels_'
'hospodářství_'
'existing_'
'ené_'
'environmental_'
'b'
'availability_'
'actually_'
'North_'
'Mrs_'
'Klimatizace_'
',” _'
'život_'
'údajů_'
'totiž_'
'tions_'
'společné_'
'sea_'
'remains_'
'relevant_'
'peace_'
'moc_'
'land_'
'fight_'
'designed_'
'currently_'
'civil_'
'cen_'
'behind_'
'beds_'
'applicable_'
'Z'
'December_'
'.'_'
'říci_'
'veřejných_'
'upon_'
'technology_'
'svém_'
'společnost_'
'ring_'
'request_'
'právních_'
'points_'
'p'
'ného_'
'letiště_'
'gs_'
'features_'
'considered_'
'45_'
'ž_'
'využít_'
'va_'
'translation_'
'svět_'
'steps_'
'spaces_'
'similar_'
'politických_'
'osobu_'
'mám_'
'ideal_'
'entire_'
'enable_'
'effect_'
'developed_'
'along_'
'addition_'
'actions_'
'áním_'
'young_'
'train_'
'thus_'
'thank_'
'property_'
'poté_'
'plně_'
'ovou_'
'osoby_'
'osob_'
'místa_'
'malé_'
'lower_'
'instituce_'
'head_'
'eurozone_'
'directive_'
'ck_'
'capacity_'
'benefit_'
'alone_'
'Evropskou_'
'CO2_'
'žádný_'
'zatímco_'
'všechno_'
'vytvoření_'
'trhy_'
'soudní_'
'provádění_'
'poverty_'
'maintenance_'
'former_'
'cultural_'
'bathroom_'
'ba_'
'anti_'
'Proč_'
'Of_'
'získat_'
'vůbec_'
'understand_'
'took_'
'status_'
'shopping_'
'rise_'
'response_'
'přihlášení_'
'předsedo_'
'popular_'
'obchodní_'
'ká_'
'historic_'
'gentlemen_'
'fotografii_'
'ds_'
'culture_'
'authority_'
'atmosphere_'
'according_'
'Francie_'
'Best_'
' ('
'ře_'
'údaje_'
'výboru_'
'typu_'
'ský_'
'sense_'
'related_'
'regionální_'
'pracovních_'
'počtu_'
'ový_'
'jobs_'
'freedom_'
'cílů_'
'carried_'
'bus_'
'Why_'
'NATO_'
'Members_'
'Kingdom_'
'Bo'
'An_'
'žen_'
'zlepšení_'
'zajištění_'
'tady_'
'světové_'
'source_'
'přijmout_'
'předpisy_'
'nebyl_'
'mimo_'
'm'
'ings_'
'competition_'
'although_'
'Terasa_'
'Tak_'
'Grand_'
'EEC_'
'zvětší_'
'x'
'whose_'
'vše_'
'výše_'
'sám_'
'systémy_'
'sebe_'
'rozvoje_'
'requires_'
'proposed_'
'parlament_'
'odhlášení_'
'obvykle_'
'konkrétní_'
'kliknete_'
'hlediska_'
'evropského_'
'enjoy_'
'effort_'
'effects_'
'documents_'
'cause_'
'below_'
'bad_'
'active_'
'UN_'
'Disabled_'
'--_'
',' _'
'zásadní_'
'word_'
'ujeme_'
'treatment_'
'told_'
'současnosti_'
'ského_'
'practice_'
'peníze_'
'nemá_'
'nachází_'
'infrastructure_'
'ine_'
'indeed_'
'ilo_'
'hy_'
'hour_'
'hot_'
'ej_'
'door_'
'dlouho_'
'ding_'
'di_'
'computer_'
'brought_'
'Where_'
'Směnárna_'
'Many_'
'Greece_'
'Expresní_'
'Agreement_'
'35_'
'článek_'
'zájmu_'
'zboží_'
'went_'
'version_'
'tomuto_'
'sustainable_'
'ss_'
'spacious_'
'quickly_'
'míru_'
'finance_'
'extremely_'
'exkurzí_'
'ec_'
'double_'
'dobré_'
'beach_'
'ations_'
'Not_'
'Já_'
'Jestliže_'
'H_'
'Ano_'
'Airconditioning_'
'70_'
'32_'
',“ _'
'území_'
'zdroje_'
'vy_'
'strategie_'
'skutečnost_'
'potravin_'
'omezení_'
'ohledu_'
'nature_'
'moment_'
'message_'
'late_'
'importance_'
'hodin_'
'eyes_'
'export_'
'ad_'
'Tour_'
'َ_'
'week_'
'vyžaduje_'
'technical_'
'takes_'
'směrem_'
'self_'
'riziko_'
'pravděpodobně_'
'play_'
'ového_'
'nebylo_'
'mého_'
'málo_'
'morning_'
'len'
'leave_'
'j_'
'installation_'
'included_'
'ha_'
'est_'
'cy_'
'consequences_'
'alespoň_'
'York_'
'Square_'
'JavaScript_'
'EHS_'
'4hvězdičkový_'
'3hvězdičkový_'
'%_'
'�_'
've'
'setting_'
'sed_'
'risks_'
'restaurants_'
'reached_'
'předseda_'
'positive_'
'názoru_'
'job_'
'involved_'
'fundamental_'
'favour_'
'dříve_'
'created_'
'certainly_'
'Your_'
'Palace_'
'From_'
'ěji_'
'zapotřebí_'
'works_'
'w'
'un_'
'types_'
'study_'
'spíše_'
'providing_'
'prostředků_'
'prosince_'
'proces_'
'lost_'
'kolem_'
'famous_'
'e'
'dosažení_'
'death_'
'currency_'
'consider_'
'concerns_'
'budete_'
'agreed_'
'Yes_'
'While_'
'OSN_'
'Kromě_'
'Government_'
'zasedání_'
'význam_'
'uvedené_'
'třetí_'
'success_'
'style_'
'ských_'
'purpose_'
'pressure_'
'pozornost_'
'postavení_'
'plán_'
'opportunities_'
'nákladů_'
'míst_'
'monetary_'
'lety_'
'assets_'
'ant_'
'Then_'
'Other_'
'First_'
'Brussels_'
'500_'
'zavedení_'
'zahraniční_'
'webu_'
'součástí_'
'rozpočtu_'
'received_'
'priority_'
'požadavky_'
'pokračovat_'
'patří_'
'možnosti_'
'limits_'
'largest_'
'historical_'
'dál_'
'content_'
'balance_'
'add_'
'Star_'
'More_'
'Middle_'
'Legal_'
'Ko'
'January_'
'Even_'
'Británie_'
'Africa_'
'2013_'
'07_'
'ž'
'wrong_'
'výsledky_'
'toward_'
'speak_'
'snad_'
'shown_'
'ses_'
'režimu_'
'regionu_'
'příležitost_'
'opravdu_'
'official_'
'lépe_'
'lidi_'
'leading_'
'ký_'
'huge_'
'existují_'
'des_'
'ané_'
'ad'
'Vzhledem_'
'Currency_'
'200_'
'.'
'“, _'
'času_'
'| _'
'ze'
'ter'
'přitom_'
'otázce_'
'oblastí_'
'nástroje_'
'krizi_'
'internetové_'
'industrial_'
'everyone_'
'event_'
'elegant_'
'efficient_'
'dopravy_'
'domestic_'
'cut_'
'bezpečnostní_'
'annual_'
'administration_'
'Russian_'
'Development_'
'06_'
'účelem_'
'vzdělávání_'
'video_'
'via_'
'solidarity_'
'snaží_'
'relating_'
'přijetí_'
'předpisů_'
'otázka_'
'ným_'
'nová_'
'n'
'knowledge_'
'jinak_'
'hosty_'
'fo'
'důvodů_'
'důsledky_'
'comes_'
'ces_'
'W_'
'Out_'
'Book_'
''._'
'Španělsko_'
'Š'
'íte_'
'vání_'
'války_'
'tví_'
'tes_'
'sou'
'skou_'
'sion_'
'rezervace_'
'regime_'
'reference_'
'použijte_'
'politics_'
'ping_'
'místní_'
'living_'
'jednu_'
'jaké_'
'floor_'
'emi_'
'dítě_'
'contact_'
'consumers_'
'added_'
'Německo_'
'Myslím_'
'E'
'životní_'
'života_'
'čí_'
'září_'
'změnit_'
'wide_'
'síly_'
'sound_'
'ro_'
'reformy_'
'odpovědnost_'
'nepo'
'mail_'
'kem_'
'failed_'
'demokracie_'
'convenient_'
'cities_'
'chce_'
'activity_'
'October_'
'Bylo_'
'ští_'
'ři_'
'www_'
'wanted_'
'výši_'
'třídy_'
'spending_'
'rich_'
'responsible_'
'require_'
'relation_'
'read_'
'podniků_'
'parkování_'
'nižší_'
'nez'
'např_'
'mentioned_'
'jedna_'
'it'
'hodnocení_'
'himself_'
'consumption_'
'conflict_'
'commitment_'
'aci_'
'Terrace_'
'South_'
'Obama_'
'Ireland_'
'Inn_'
' /_'
'zpoplatněny_'
'won_'
'vytvořit_'
'vnitřní_'
'viz_'
'velký_'
'udělat_'
'successful_'
'starší_'
'sektoru_'
'použít_'
'politik_'
'podniky_'
'paragraph_'
'mis'
'matters_'
'lidem_'
'každém_'
'jší_'
'ist_'
'instead_'
'hear_'
'expected_'
'communication_'
'comfort_'
'began_'
'anything_'
'War_'
'Such_'
'Spa_'
'Se'
'Od_'
'Microsoft_'
' . _'
'é'
'věc_'
'ves_'
'users_'
'team_'
'stí_'
'stejné_'
'rozšíření_'
'receive_'
'prospěch_'
'principles_'
'okamžitě_'
'office_'
'novou_'
'největší_'
'minut_'
'metres_'
'ladies_'
'kontroly_'
'k'
'increasingly_'
'increasing_'
'ii_'
'financí_'
'effectively_'
'dost_'
'c'
'beginning_'
'avoid_'
'agricultural_'
'Staff_'
'Please_'
'Is_'
'Doprava_'
'?" _'
'300_'
'.)_'
'žádná_'
'zeměmi_'
'visit_'
'students_'
'ráda_'
'rizika_'
'protect_'
'prevent_'
'paid_'
'nu_'
'ner_'
'mg_'
'mal'
'majority_'
'jedním_'
'ging_'
'emisí_'
'elections_'
'dní_'
'deficit_'
'decades_'
'd'
'carbon_'
'ca_'
'assessment_'
'aniž_'
'achieved_'
'accept_'
'Yet_'
'San_'
'Madrid_'
'Jako_'
'Click_'
'%, _'
'žádost_'
'Číny_'
'úroveň_'
'ík_'
'zemědělství_'
'volby_'
'ure_'
'up'
'training_'
'ten'
'technologií_'
'te'
'supported_'
'sources_'
'shows_'
'rozvojových_'
'produktů_'
'potřeby_'
'park_'
'packages_'
'nap'
'limit_'
'komisaři_'
'každé_'
'jiného_'
'intended_'
'instantly_'
'ge'
'et'
'establishing_'
'consumer_'
'celou_'
'boj_'
'attractions_'
'ated_'
'September_'
'Rusko_'
'Just_'
'Hlídání_'
'Great_'
'Although_'
'2'
'ími_'
'zákona_'
'zhruba_'
'y'
'user_'
'unique_'
'unemployment_'
'systémů_'
'sem_'
'section_'
'proti'
'prezidenta_'
'potřeba_'
'pleasant_'
'ovala_'
'nového_'
'nebudou_'
'menu_'
'limited_'
'labor_'
'konečně_'
'jenž_'
'investic_'
'granted_'
'formulář_'
'fair_'
'events_'
'establishment_'
'ením_'
'disease_'
'decided_'
'contains_'
'circumstances_'
'celý_'
'became_'
'answer_'
'administrative_'
']]._'
'PO'
'I'
'Free_'
'Asia_'
'? _'
'05_'
'!"_'
'řádu_'
'ána_'
'Ú'
'ví_'
'vztahy_'
'tehdy_'
'stran_'
'stane_'
'spolu_'
'simple_'
'sebou_'
'search_'
'reality_'
'post_'
'ovali_'
'opět_'
'oblast_'
'někdy_'
'náš_'
'nimi_'
'ni'
'nejlepší_'
'nearby_'
'máte_'
'ms_'
'forces_'
'fishing_'
'fall_'
'důvod_'
'despite_'
'competent_'
'budoucnosti_'
'average_'
'ano_'
'agreements_'
'X'
'Un'
'Street_'
'S'
'November_'
'July_'
'Garden_'
'Du'
'Další_'
'řešit_'
'ány_'
'áme_'
'změn_'
'window_'
'uji_'
'tolik_'
'technologies_'
'svobody_'
'příležitosti_'
'previous_'
'používání_'
'photo_'
'nastavení_'
'měsíců_'
'jasné_'
'integration_'
'ina_'
'ian_'
'došlo_'
'develop_'
'cíl_'
'centru_'
'beyond_'
'base_'
'ační_'
'applied_'
'Presidency_'
'Mar'
'Le_'
'IT_'
'Fi_'
'Da'
'Child_'
'ť_'
'řekla_'
'ňuje_'
'worked_'
'výdaje_'
'vést_'
'verze_'
'týče_'
'trying_'
'throughout_'
'talk_'
'sítě_'
'soubor_'
'six_'
'saw_'
'rozsahu_'
'roky_'
'pár_'
'prvním_'
'prezident_'
'pravidel_'
'později_'
'peaceful_'
'partnerství_'
'pacientů_'
'ováním_'
'ory_'
'online_'
'on'
'objectives_'
'obchod_'
'nesmí_'
'naprosto_'
'míry_'
'month_'
'monitoring_'
'man'
'lly_'
'learning_'
'jít_'
'hotels_'
'focus_'
'establish_'
'ekonomické_'
'dosud_'
'dokud_'
'deep_'
'compromise_'
'caused_'
'card_'
'aware_'
']], _'
'Since_'
'Party_'
'Pa'
'OF_'
'Nej'
'Amsterdam_'
' -- _'
'ň_'
'če_'
'át_'
'à_'
'záležitosti_'
'zdravotní_'
'ur_'
'turned_'
'tic_'
'thinking_'
'sobě_'
'rozdíl_'
'release_'
'produced_'
'powerful_'
'plánu_'
'note_'
'nikdo_'
'nej'
'jednotlivých_'
'innovation_'
'inflation_'
'ina'
'ické_'
'fine_'
'facing_'
'er'
'enter_'
'dohodu_'
'completely_'
'claims_'
'chování_'
'challenge_'
'appear_'
'ans_'
'an'
'Wi_'
'Tra'
'Před_'
'Per'
'March_'
'Díky_'
'Byl_'
'16'
'životního_'
'členskými_'
'úlohu_'
'zpět_'
'zi'
'vaše_'
'určité_'
'und_'
'umožňuje_'
'um'
'ul_'
'trhů_'
'státům_'
'stavu_'
'sometimes_'
'served_'
'rukou_'
'roli_'
'reports_'
'reforms_'
'r'
'programy_'
'potřebujeme_'
'podporuje_'
'performance_'
'out'
'obavy_'
'nýbrž_'
'násilí_'
'neza'
'net_'
'krok_'
'king_'
'jednat_'
'highly_'
'he'
'har'
'gave_'
'ete_'
'emerging_'
'dělat_'
'domácí_'
'dohoda_'
'ců_'
'cross_'
'criteria_'
'concern_'
'claim_'
'cheap_'
'ar'
'anyone_'
'anti'
'alternative_'
'aim_'
'agenda_'
'Y'
'UK_'
'Turkey_'
'Smlouvy_'
'Popis_'
'Only_'
'Jeho_'
'Gra'
'April_'
'9'
'ův_'
'written_'
'výrobků_'
'vstupenek_'
'ver_'
'umožní_'
'snadno_'
'running_'
'recovery_'
'promote_'
'problému_'
'powers_'
'pom'
'persons_'
'panu_'
'osobní_'
'nevy'
'nebyla_'
'našeho_'
'nad'
'mo'
'minimum_'
'massive_'
'maintain_'
'love_'
'lives_'
'influence_'
'in'
'ial_'
'green_'
'g'
'fear_'
'eu'
'en'
'easily_'
'cur'
'cs_'
'context_'
'connection_'
'cké_'
'cestu_'
'cal_'
'budoucnost_'
'ance_'
'aimed_'
'Su'
'Security_'
'Pen'
'His_'
'Europeans_'
'Cor'
'Avšak_'
', “_'
''' _'
'victims_'
'velkou_'
'vedení_'
'useful_'
'us'
'threat_'
'terrorism_'
'talking_'
'speed_'
'soudního_'
'sil_'
'send_'
'seemed_'
'reduction_'
'představují_'
'produce_'
'president_'
'potřebné_'
'pokroku_'
'places_'
'phone_'
'ning_'
'materials_'
'kroky_'
'j'
'institucí_'
'initiative_'
'h'
'era_'
'equal_'
'election_'
'direction_'
'desk_'
'cover_'
'chvíli_'
'challenges_'
'calls_'
'bot_'
'board_'
'bi'
'Vážený_'
'Vy'
'Ukraine_'
'Rome_'
'Rodinné_'
'Prime_'
'Most_'
'Korea_'
'Iráku_'
'Inter'
'Hi'
'God_'
'GNU_'
'Convention_'
'., _'
') (_'
'ženy_'
'zvýšit_'
'změně_'
'zbraní_'
'zase_'
'výzkumu_'
'výrobky_'
'vody_'
'violence_'
'veřejného_'
'swimming_'
'sent_'
'různé_'
'pursuant_'
'ped_'
'partners_'
'offered_'
'obrovské_'
'listopadu_'
'laid_'
'l'
'kterém_'
'ks_'
'konci_'
'justice_'
'includes_'
'funding_'
'finally_'
'ejte_'
'dat_'
'coffee_'
'changed_'
'cenu_'
'bodies_'
'advanced_'
'Web_'
'St_'
'Shop_'
'Plaza_'
'Navíc_'
'Možná_'
'Ha'
'George_'
'95_'
'). _'
'čímž_'
'zásady_'
'změnu_'
'wellness_'
'warm_'
'voice_'
'vliv_'
'ukáže_'
'technologie_'
'task_'
'strategic_'
'stayed_'
'stalo_'
'serve_'
'seem_'
'sectors_'
'record_'
'prosím_'
'programs_'
'pre_'
'pra'
'poskytnout_'
'pon'
'ovaly_'
'offering_'
'obyvatel_'
'nástroj_'
'myslím_'
'measure_'
'ma'
'looked_'
'kých_'
'kernel_'
'kept_'
'jurisdiction_'
'heard_'
'expect_'
'else_'
'efficiency_'
'dát_'
'duty_'
'defined_'
'da'
'courts_'
'contribution_'
'confidence_'
'choose_'
'chcete_'
'buffet_'
'bod_'
'ba'
'ana_'
'Therefore_'
'Také_'
'Social_'
'Skupina_'
'Sauna_'
'No'
'III_'
'Family_'
'Babysitting_'
'Arab_'
'42_'
'2015_'
'1990_'
'%._'
'úvahu_'
'Í_'
'zí_'
'weeks_'
'výsledek_'
'va'
'v'
'ur'
'smyslu_'
'sm_'
'sh_'
'ser'
'ru_'
'regarding_'
'průběhu_'
'please_'
'patients_'
'path_'
'ot_'
'obou_'
'němž_'
'nedávno_'
'mission_'
'mezinárodních_'
'met_'
'ground_'
'fuel_'
'fondu_'
'follow_'
'fixed_'
'firmy_'
'felt_'
'demokracii_'
'damage_'
'complex_'
'commercial_'
'code_'
'bodu_'
'bazén_'
'attack_'
'aspects_'
'Unie_'
'Trek_'
'Te'
'Policy_'
'Latin_'
'Italian_'
'IMF_'
'Evropu_'
'01_'
'ština_'
'řadě_'
'Čištění_'
'zvláště_'
'zdá_'
'yn'
'whom_'
'věcí_'
'vhodné_'
'utí_'
'usually_'
'ue_'
't'
'started_'
'rozvojové_'
'průmyslu_'
'projektu_'
'problémů_'
'pozměňovací_'
'podporovat_'
'orgánů_'
'options_'
'odpověď_'
'občané_'
'občany_'
'něm_'
'návrhů_'
'nikoliv_'
'nikoli_'
'nejvyšší_'
'naopak_'
'middle_'
'lní_'
'jestli_'
'image_'
'fy_'
'extent_'
'eur_'
'ence_'
'dollar_'
'dialogue_'
'determined_'
'daně_'
'contribute_'
'cestách_'
'centra_'
'built_'
'begin_'
'als_'
'abych_'
'Zpráva_'
'Velká_'
'Ticket_'
'Ri'
'Přesto_'
'Pe'
'Old_'
'Nice_'
'MMF_'
'Last_'
'Kosovo_'
'Jo'
'Je'
'Hu'
'Fitness_'
'Finally_'
'Economic_'
'Description_'
'According_'
'Aby_'
'AR'
' ,,_'
'ši'
'ř'
'ějších_'
'čtyři_'
'čních_'
'vě'
'výkonu_'
'vedoucí_'
'val_'
'takový_'
'spojení_'
'sites_'
'se'
'science_'
'ropy_'
'review_'
'rea'
'pět_'
'proper_'
'programmes_'
'operation_'
'net'
'nejméně_'
'nebezpečí_'
'mé_'
'methods_'
'maximum_'
'letter_'
'ler_'
'le'
'království_'
'kromě_'
'id_'
'hospodářský_'
'happen_'
'for'
'failure_'
'entry_'
'energetické_'
'ena_'
'dí_'
'dostat_'
'disk_'
'dangerous_'
'cím_'
'conference_'
'bly_'
'avast_'
'at'
'art_'
'alo_'
'Výboru_'
'Rád_'
'Právě_'
'El'
'Can_'
'Bal'
'65_'
'48_'
'08_'
'0'
' –, _'
'řadu_'
'ární_'
'zájmy_'
'zahraničí_'
'web_'
'vlastně_'
'vi'
'ven_'
'ut'
'tu'
'tried_'
'taková_'
'selected_'
'schopnost_'
'sa'
'reading_'
'před'
'péče_'
'pro'
'posílení_'
'port_'
'politickou_'
'politice_'
'older_'
'objective_'
'nosti_'
'neexistuje_'
'mode_'
'minulosti_'
'men'
'loss_'
'links_'
'knew_'
'ip'
'implementing_'
'giving_'
'game_'
'furnished_'
'formy_'
'forms_'
'fiskální_'
'files_'
'draw_'
'district_'
'daleko_'
'bility_'
'bez'
'animals_'
'aly_'
'Re'
'Itálie_'
'Here_'
'En'
'DVD_'
'Ca'
'CI'
'Během_'
'1'
' ) ._'
'ět_'
'zůstává_'
'základních_'
'zone_'
'z'
'wine_'
'významné_'
'vztahů_'
'vzdělání_'
'variety_'
'ut_'
'uni'
'transfer_'
'tní_'
'stock_'
'spa_'
'snížit_'
'skupin_'
'server_'
'rt'
'regulations_'
'regards_'
'přesně_'
'pu'
'processing_'
'používat_'
'plus_'
'ones_'
'ol'
'news_'
'nebyly_'
'nearly_'
'moderní_'
'mapě_'
'lines_'
'jedná_'
'ish_'
'inter'
'guarantee_'
'ey_'
'dvěma_'
'dit_'
'distribution_'
'closed_'
'argument_'
'allowed_'
'Vý'
'Suite_'
'Pří'
'PT_'
'LE'
'Ju'
'Having_'
'Financial_'
'Dnes_'
'Church_'
'Britain_'
'92_'
'37_'
' ''_'
'žádosti_'
'Č'
'Ã_'
'zřejmě_'
'zat'
'vztahu_'
'využívat_'
'učinit_'
'update_'
'těmto_'
'structure_'
'společného_'
'směrnici_'
'shuttle_'
'scheme_'
'scale_'
'regulatory_'
'rady_'
'příslušné_'
'pravomoci_'
'povinnost_'
'postup_'
'pi'
'ována_'
'original_'
'officials_'
'ob'
'nějaké_'
'nepro'
'nemusí_'
'levé_'
'jestliže_'
'je'
'intervention_'
'independent_'
'ical_'
'hranice_'
'grounds_'
'gone_'
'external_'
'existence_'
'ensuring_'
'enforcement_'
'elements_'
'doubt_'
'dopad_'
'don'
'doesn_'
'de'
'anebo_'
'amendments_'
'\\_'
'Zahrada_'
'Resort_'
'Právní_'
'Oh_'
'Ni'
'Located_'
'Full_'
'Egypt_'
'De_'
'Bar'
'Al'
'Act_'
'14'
'čím_'
'én'
'ád'
'zp'
'wants_'
'výzkum_'
'under'
'též_'
'trust_'
'tra'
'tive_'
'thumbnail_'
'target_'
'starting_'
'stars_'
'stand_'
'speech_'
'solutions_'
'school_'
'round_'
'příjmy_'
'přistýlky_'
'properly_'
'pravdu_'
'pracovat_'
'plant_'
'plans_'
'ované_'
'ostatních_'
'opening_'
'op'
'ona_'
'normal_'
'nor_'
'nemají_'
'můj_'
'mor'
'lí'
'learn_'
'import_'
'hospodářskou_'
'hodinu_'
'happy_'
'hands_'
'getting_'
'geo'
'garden_'
'fresh_'
'except_'
'dle_'
'ded_'
'dalším_'
'covered_'
'cosy_'
'conditioning_'
'comprehensive_'
'build_'
'back'
'al'
'adequate_'
'a'
'Well_'
'Villa_'
'Shuttle_'
'Sea_'
'Ruska_'
'Ro'
'Ra'
'Pře'
'Pre'
'Nations_'
'Le'
'Ještě_'
'Each_'
'Americans_'
'čního_'
'člověk_'
'ít_'
'íci_'
'závazky_'
'zákon_'
'značné_'
'zařízených_'
'zaměstnanosti_'
'vývoj_'
'výdajů_'
'velkých_'
'týkajících_'
'tool_'
'stávajících_'
'strana_'
'sti'
'slovy_'
'sha'
's'
'rámec_'
'ročně_'
'režim_'
'prosperity_'
'programů_'
'potřebuje_'
'possibility_'
'pokrok_'
'placed_'
'pat'
'oznámení_'
'oz'
'odi'
'obětí_'
'obecně_'
'ná'
'notice_'
'movement_'
'metro_'
'lovely_'
'lou'
'ledna_'
'kého_'
'kle'
'ism_'
'implemented_'
'illegal_'
'hol'
'hle_'
'hi'
'hen'
'gar'
'dispute_'
'determine_'
'crime_'
'correct_'
'cho'
'cestě_'
'bá'
'approved_'
'applications_'
'animal_'
'Shoe_'
'Rozhodnutí_'
'Rights_'
'Prague_'
'Plný_'
'Palestinian_'
'Například_'
'Mám_'
'Mediterranean_'
'Lisabonské_'
'John_'
'Indie_'
'Human_'
'Di'
'75_'
'7'
', '
'že'
'způsoby_'
'zemědělské_'
'zap'
'zam'
'všeho_'
'věku_'
'veškeré_'
'vede_'
'union_'
'territory_'
'ste'
'st'
'specified_'
'soudržnosti_'
'slova_'
'sing_'
'sazby_'
'republiky_'
'reducing_'
'případ_'
'pří'
'prepared_'
'podpořit_'
'participation_'
'overall_'
'někdo_'
'ními_'
'no'
'mění_'
'link_'
'lidská_'
'laws_'
'ine'
'implement_'
'hodnotu_'
'hlasovat_'
'generally_'
'gen'
'ekonomika_'
'dostatečně_'
'diskuse_'
'des'
'degree_'
'dark_'
'conclusion_'
'chtějí_'
'car'
'brzy_'
'bre'
'am'
'affected_'
']._'
'University_'
'Station_'
'Section_'
'Pod'
'PPE_'
'Opera_'
'Návrh_'
'Nyní_'
'National_'
'Ma'
'Do'
'Beach_'
': „_'
'3'
'š'
'řečeno_'
'činnost_'
'zřejmé_'
'ys_'
'využívání_'
'van'
'uses_'
'tools_'
'ties_'
'thanks_'
'telephone_'
'taxes_'
'svými_'
'sts_'
'str'
'stage_'
'součást_'
'souboru_'
'sociálních_'
'selection_'
'religious_'
'přibližně_'
'politický_'
'politici_'
'pod'
'nější_'
'normy_'
'neo'
'multi'
'moral_'
'milk_'
'mer'
'me'
'join_'
'ja'
'ir'
'impossible_'
'immigration_'
'hal'
'ger_'
'ez'
'evropský_'
'evening_'
'eno_'
'ela_'
'eb'
'dot'
'dluhu_'
'dar'
'dan'
'coordination_'
'chtěla_'
'cen'
'bohužel_'
'attempt_'
'ating_'
'aktualizace_'
'abyste_'
'Všichni_'
'Ve'
'USD_'
'Ty_'
'Today_'
'Sta'
'Software_'
'Shine_'
'Pot'
'Na'
'IP_'
'He'
'Eastern_'
'Don_'
'De'
'Austria_'
'Apartments_'
'09_'
'řada_'
'ěte_'
'členským_'
'Číně_'
'Írán_'
'zvířat_'
'zrušení_'
'zi_'
'zen'
'zemím_'
'začal_'
'woman_'
'vládu_'
'vají_'
'ukazuje_'
'ujte_'
'uch'
'trochu_'
'touto_'
'ti'
'th'
'su'
'sociálního_'
'rural_'
'removed_'
'reduced_'
'prostoru_'
'proof_'
'postoj_'
'okamžitou_'
'oc'
'nu'
'neod'
'nd_'
'nd'
'nation_'
'mother_'
'medium_'
'map_'
'latest_'
'jaký_'
'issued_'
'io_'
'ideální_'
'http_'
'gra'
'ft_'
'ele'
'du'
'draft_'
'dose_'
'critical_'
'competitiveness_'
'cesty_'
'bri'
'born_'
'attacks_'
'amendment_'
'allows_'
'adoption_'
'Ver'
'Ti'
'Thank_'
'Saw_'
'Romania_'
'Ka'
'Jsou_'
'Instead_'
'Bra'
'* _'
'е'
'října_'
'činností_'
'úplně_'
'át'
'Á'
'začít_'
'zaktivujete_'
'zabezpečení_'
'wealth_'
'war'
'voting_'
'var'
'tal_'
'takto_'
'studies_'
'statement_'
'standing_'
'správně_'
'spotřebitelů_'
'spent_'
'sol'
'shops_'
'saying_'
'sama_'
'rizik_'
'raised_'
'přesto_'
'průmysl_'
'právem_'
'provision_'
'pouhých_'
'pohled_'
'pe'
'ovány_'
'ován_'
'otherwise_'
'oli'
'najít_'
'měst_'
'moje_'
'mid_'
'menší_'
'li'
'let'
'leadership_'
'konce_'
'kon'
'jících_'
'iv'
'investments_'
'instance_'
'infrastruktury_'
'hy'
'hospodářského_'
'ha'
'financing_'
'fa'
'expensive_'
'expenditure_'
'eurozóny_'
'die_'
'decide_'
'cího_'
'cuisine_'
'convert_'
'boot_'
'bio'
'binding_'
'applies_'
'apartmá_'
'ap'
'ak'
'[[_'
'Val'
'Radě_'
'Putin_'
'Nařízení_'
'Mo'
'Jacuzzi_'
'Ga'
'EL_'
'CE_'
'Berlin_'
': '
'01'
'št'
'říká_'
'ňování_'
'číslo_'
'členy_'
'členského_'
'činí_'
'účely_'
'úspěch_'
'í'
'white_'
'věd'
'vím_'
'vojenské_'
'vo'
'vin'
'vehicles_'
'unless_'
'tri'
'tan'
'svobodu_'
'su_'
'státních_'
'strategii_'
'relationship_'
'reakce_'
'rd_'
'povinnosti_'
'plat'
'para'
'oni'
'om'
'názor_'
'národů_'
'nul'
'nena'
'neměla_'
'nemohou_'
'navzdory_'
'minimální_'
'medical_'
'maximální_'
'manželství_'
'manage_'
'lá'
'luxurious_'
'lt'
'kterého_'
'ke'
'interested_'
'instalaci_'
'improving_'
'ility_'
'identity_'
'eš_'
'encourage_'
'ekonomiku_'
'doporučení_'
'dobrou_'
'dnešní_'
'default_'
'criminal_'
'chci_'
'chceme_'
'chance_'
'by'
'break_'
'banking_'
'amerických_'
'ably_'
'TI'
'Saint_'
'SA'
'Ru'
'PSE_'
'Ob'
'Ja'
'Its_'
'Israeli_'
'Har'
'Global_'
'Gentoo_'
'ES'
'Archer_'
'Ab'
'://_'
'94_'
'91_'
'8'
'34_'
'1997_'
'"'
'řídí_'
'ří'
'členů_'
'Členské_'
'zástupce_'
'znění_'
'zahájení_'
'yb'
'wing_'
'weak_'
'waste_'
'vlád_'
'uvedených_'
'těžké_'
'treaty_'
'tourist_'
'suite_'
'stylish_'
'stanovené_'
'stal_'
'správné_'
'skupina_'
'sitting_'
'si'
'ruce_'
'ries_'
'regiony_'
'ready_'
'qui'
'případně_'
'prom'
'projekty_'
'prior_'
'potřebují_'
'pop'
'podobě_'
'ovací_'
'ova_'
'ously_'
'option_'
'obě_'
'občanům_'
'nění_'
'nts_'
'nev'
'nes'
'neměl_'
'mu'
'ms'
'material_'
'mark_'
'mar'
'malých_'
'lu'
'kov'
'kol_'
'ker'
'keeping_'
'každého_'
'jméno_'
'jinými_'
'insurance_'
'independence_'
'hodně_'
'hlavních_'
'ga_'
'finančního_'
'fer'
'fast_'
'eva'
'ess_'
'easier_'
'důležitá_'
'dro'
'dospělí_'
'dlouhodobé_'
'discussion_'
'denně_'
'ct_'
'creation_'
'consideration_'
'ck'
'ci'
'ati'
'analysis_'
'akce_'
'Ya'
'WTO_'
'Výbor_'
'Spanish_'
'Soukromé_'
'SV_'
'Rovněž_'
'Pri'
'Ok'
'Od'
'NA'
'Mu'
'Manhattan_'
'Lo'
'In'
'GBP_'
'Co'
'Ci'
'Because_'
'Barcelona_'
'Am'
': "_'
'55_'
'33_'
'1995_'
','
'о'
'и'
'ří_'
'člen_'
'června_'
'ál_'
'zůstat_'
'zed_'
'zajistí_'
'worth_'
'win_'
'ware_'
'výkon_'
'vý'
'vážně_'
'vir'
'vel'
'tvoří_'
'tudíž_'
'terorismu_'
'summit_'
'spoke_'
'seeking_'
'scientific_'
'ry'
'recognition_'
'raise_'
'rad'
'pěti_'
'purposes_'
'produkty_'
'priorities_'
'presented_'
'pre'
'postupu_'
'poskytování_'
'pokojích_'
'pocit_'
'passed_'
'ově_'
'ovaných_'
'otázek_'
'organisations_'
'opposition_'
'operations_'
'om_'
'ok'
'od'
'ochraně_'
'ném_'
'neu'
'neob'
'ned_'
'nas'
'mí'
'mus_'
'mobility_'
'marriage_'
'majetku_'
'ly'
'lu_'
'listed_'
'lies_'
'lib'
'les'
'lai'
'ko'
'kapitálu_'
'ka'
'investors_'
'internetu_'
'inside_'
'imports_'
'ie'
'ide_'
'ho'
'goes_'
'fund_'
'fond_'
'farmers_'
'dárky_'
'domů_'
'domnívám_'
'cri'
'creating_'
'continues_'
'continued_'
'construction_'
'cení_'
'cation_'
'cars_'
'cally_'
'března_'
'budoucí_'
'bar'
'aných_'
'amended_'
'absence_'
'Zvukotěsné_'
'Young_'
'Už_'
'Pi'
'Obchod_'
'NE'
'Mon'
'Min'
'Ho'
'Děkuji_'
'Cel'
'93_'
'38_'
'!" _'
' -_'
'říct_'
'ření_'
'řen'
'července_'
'úřadu_'
'áz'
'álně_'
'zní_'
'zjistit_'
'zd'
'zařízenými_'
'worse_'
'uvnitř_'
'určen'
'uns'
'ul'
'těmito_'
'tvrdí_'
'truth_'
'tor'
'tomorrow_'
'tis'
'terrace_'
'sufficient_'
'státě_'
'spojen'
'smlouva_'
'sami_'
'rozvoji_'
'res_'
'remove_'
're'
'railway_'
'přinejmenším_'
'při'
'péči_'
'prostor_'
'prime_'
'press_'
'pojištění_'
'podíl_'
'podpora_'
'physical_'
'payments_'
'oči_'
'os'
'ode'
'obligations_'
'obchodních_'
'někteří_'
'název_'
'národních_'
'míře_'
'mini_'
'mi'
'manžel'
'lidské_'
'leader_'
'labour_'
'krizí_'
'jednoduše_'
'ing'
'im_'
'hřiště_'
'ht'
'happened_'
'han'
'goal_'
'function_'
'fin'
'fe'
'expressed_'
'ex_'
'entered_'
'eni'
'ek'
'ej'
'ed'
'dr'
'discrimination_'
'dialog_'
'di'
'details_'
'decade_'
'chudoby_'
'che_'
'buď_'
'burden_'
'bal'
'ast'
'areálu_'
'apartments_'
'ana'
'aj'
'aims_'
'adults_'
'Zároveň_'
'Wireless_'
'To'
'Sa'
'První_'
'People_'
'Par'
'Pan'
'Pak_'
'Ná'
'Lake_'
'Izrael_'
'February_'
'Domnívám_'
'Code_'
'CA'
'African_'
'88_'
'5'
'2020_'
'2012_'
'2011_'
'13'
'škody_'
'řá'
'zy_'
'zatím_'
'zaměstnanců_'
'yl'
'worldwide_'
'whereas_'
'wasn_'
'vědět_'
'využití_'
'vysoce_'
'vnitrostátní_'
'vládní_'
'vidět_'
'understanding_'
'těm_'
'transparency_'
'trans'
'tiv'
'suvenýry_'
'super'
'species_'
'shared_'
'sen'
'select_'
'schopnosti_'
'satellite_'
'rozhodně_'
'requested_'
'reakci_'
'přesvědčen_'
'právního_'
'prvního_'
'produkce_'
'practical_'
'poskytuje_'
'plynu_'
'payment_'
'ou'
'org_'
'operating_'
'obtain_'
'nějaký_'
'moved_'
'lov'
'ln'
'literature_'
'liked_'
'legislative_'
'lay_'
'kulturní_'
'krát_'
'kompletní_'
'ko_'
'klasifikovaný_'
'jte_'
'jednotlivé_'
'iny_'
'individuals_'
'highest_'
'helped_'
'gro'
'goals_'
'friends_'
'forced_'
'father_'
'fantastic_'
'exist_'
'dé'
'dodržování_'
'der'
'den'
'competitive_'
'committee_'
'changing_'
'ch'
'budoucnu_'
'ber'
'auto'
'arrival_'
'ahead_'
'af'
'adopt_'
'accounts_'
'Většina_'
'Ten_'
'Swimming_'
'Stejně_'
'Star'
'Roz'
'Royal_'
'Pool_'
'Německu_'
'NÍ_'
'Naše_'
'Li'
'Jaké_'
'J_'
'IV_'
'Google_'
'During_'
'Croatia_'
'CS_'
'Bur'
'Ben'
'Be'
'Amerika_'
'—_'
'ي_'
'ží_'
'ů'
'ón_'
'ó'
'ín'
'è'
'ä'
'áte_'
'základ_'
'zor'
'znám'
'yourself_'
'wo'
'weapons_'
'vys'
'ukončení_'
'tří_'
'téma_'
'ta'
'svá_'
'stanovit_'
'stanovení_'
'sov'
'současně_'
'související_'
'slow_'
'seznamu_'
'scope_'
'save_'
'sal'
'rt_'
'rozpočet_'
'rozhodnout_'
'rou'
'rostoucí_'
'relaxing_'
'relatively_'
'queries_'
'příjmů_'
'přispět_'
'předtím_'
'představitelé_'
'předchozí_'
'producers_'
'pravda_'
'politicians_'
'peněz_'
'past'
'orgán_'
'organisation_'
'or'
'oproti_'
'nástrojů_'
'nut'
'nejv'
'namely_'
'najdete_'
'mohu_'
'millions_'
'metrů_'
'mention_'
'membership_'
'linked_'
'kop'
'kg_'
'kar'
'joint_'
'jiný_'
'jedno_'
'informed_'
'immediate_'
'humanitarian_'
'hov'
'hlad'
'hand'
'hair_'
'gli'
'gi'
'es'
'ero'
'emise_'
'důvěru_'
'dra'
'differences_'
'difference_'
'dialogu_'
'dead_'
'cold_'
'cohesion_'
'cla'
'charges_'
'boji_'
'banka_'
'ava'
'applicant_'
'appears_'
'ant'
'alt'
'agencies_'
'advance_'
'Vol'
'Va'
'Us'
'Their_'
'Pro'
'Poland_'
'PA'
'Os'
'Neu'
'Network_'
'Netherlands_'
'Mezi_'
'Me'
'Man'
'Islamic_'
'Health_'
'Gi'
'Evropským_'
'Evropském_'
'DA'
'Centrum_'
'CE'
'C6_'
'87_'
'77_'
'66_'
'52_'
'44_'
'36_'
'30'
'22'
'03_'
'02_'
' > _'
'řád_'
'Ře'
'čem_'
'ý'
'úřadující_'
'účinky_'
'íž'
'zv'
'změna_'
'zachování_'
'weight_'
'většinu_'
'vyv'
'vybavení_'
'ub'
'týden_'
'tvrd'
'trzích_'
'traffic_'
'technické_'
'targets_'
'stav_'
'sr'
'správy_'
'společný_'
'soud'
'so'
'sm'
'sa_'
'roční_'
'reservation_'
'ran'
'race_'
'příležitostí_'
'přece_'
'prostě_'
'practices_'
'pořádku_'
'postupy_'
'populace_'
'pleased_'
'picture_'
'okamžiku_'
'og'
'o'
'námi_'
'nově_'
'nicméně_'
'nepři'
'nejprve_'
'negative_'
'nations_'
'najevo_'
'music_'
'motor'
'manner_'
'managed_'
'machine_'
'largely_'
'kandidát'
'jejích_'
'jakým_'
'jakou_'
'ita'
'is'
'ir_'
'introduced_'
'installed_'
'install_'
'increases_'
'ier_'
'gives_'
'followed_'
'fire_'
'film_'
'ep'
'eny_'
'ene'
'el'
'ef'
'ea'
'div'
'described_'
'corruption_'
'corporate_'
'core_'
'compared_'
'celkové_'
'ce'
'bu'
'bra'
'bohatství_'
'black_'
'be'
'arrangements_'
'accepted_'
'Zd'
'USS_'
'Time_'
'Thus_'
'Svatební_'
'Sm'
'Protože_'
'Phlox_'
'PRO'
'Některé_'
'Má_'
'Mor'
'Mezinárodní_'
'Mexico_'
'Ki'
'Greek_'
'Go'
'Del'
'Byla_'
'Bel'
'Before_'
'Asian_'
'Agency_'
'Affairs_'
'?“_'
'96_'
'64_'
'237'
'17'
'150_'
'10'
'...._'
'Ž'
'ším_'
'školy_'
'ějším_'
'účinné_'
'áno_'
'áni_'
'zah'
'yt'
'wonderful_'
'vyst'
'vyb'
'vní_'
'ving_'
'ven'
'uvádí_'
'tržní_'
'treated_'
'travel_'
'trading_'
'test'
'síť_'
'stávající_'
'stránek_'
'spe'
'sob'
'snižování_'
'sko'
'ski'
'series_'
'renovated_'
'reforem_'
'recommend_'
'rapid_'
'qua'
'příklad_'
'představ'
'provedení_'
'prove_'
'praxi_'
'pov'
'pot'
'postupů_'
'pohybu_'
'planet_'
'ow_'
'ovy_'
'odo'
'odhad'
'něn'
'ns'
'noise_'
'nepře'
'moře_'
'method_'
'látky_'
'las'
'knows_'
'judicial_'
'jazyk_'
'item_'
'integrace_'
'instrument_'
'institutional_'
'ig'
'hu_'
'hodnota_'
'hlavním_'
'hin'
'her'
'fondů_'
'fish_'
'ery_'
'ern'
'edn'
'decline_'
'daily_'
'cuts_'
'ct'
'cra'
'contemporary_'
'con_'
'collapse_'
'celého_'
'cel'
'businesses_'
'ben'
'bath_'
'ale'
'accession_'
'XviD_'
'Turecko_'
'Sen'
'Research_'
'Před'
'Polish_'
'Or_'
'Kar'
'Jejich_'
'IC'
'Her'
'Bulgaria_'
'Bu'
'Bezdrátové_'
'Barroso_'
'Ani_'
'An'
'Also_'
'41_'
'39'
'1998_'
'196'
')(_'
'–_'
'л'
'žení_'
'čním_'
'ü'
'úřad_'
'účast_'
'úrovně_'
'ö'
'zná'
'zation_'
'willing_'
'wi'
'wait_'
'východní_'
'válka_'
'vynikající_'
'vr'
'votes_'
'vnější_'
'vessels_'
'uz'
'ujících_'
'u'
'tur'
'tr'
'tou_'
'territorial_'
'tele'
'takových_'
'sílu_'
'sy_'
'supposed_'
'sta'
'srdci_'
'sport_'
'společnou_'
'someone_'
'slovo_'
'ským_'
'skupinu_'
'ships_'
'sen_'
'seek_'
'represent_'
'relative_'
'reasonable_'
'případů_'
'projektů_'
'productivity_'
'procent_'
'považuje_'
'post'
'poslanci_'
'poprvé_'
'politická_'
'pln'
'ple'
'playing_'
'paměti_'
'outcome_'
'osobních_'
'opened_'
'odpovědi_'
'občanské_'
'ní'
'následující_'
'numbers_'
'networks_'
'nech'
'musím_'
'možno_'
'migration_'
'memory_'
'mainly_'
'leisure_'
'led'
'las_'
'kritéria_'
'kli'
'katastrof'
'jelikož_'
'instruments_'
'guarantees_'
'grant_'
'friend_'
'fla'
'evropskou_'
'entirely_'
'ent'
'een_'
'děje_'
'dubna_'
'dojde_'
'dohodě_'
'dnem_'
'demands_'
'cor'
'con'
'communities_'
'combination_'
'click_'
'budu_'
'booking_'
'bodem_'
'bo'
'bel'
'bea'
'atd_'
'amenities_'
'acts_'
'] '
'Tu'
'Tri'
'Tre'
'Tan'
'Ta'
'Soundproofed_'
'Second_'
'RO_'
'Plat'
'Ol'
'Nicméně_'
'Může_'
'Muslim_'
'Location_'
'Komisí_'
'Gaza_'
'Fi'
'Euro'
'Dále_'
'David_'
'Are_'
'99_'
'97_'
'62_'
'47_'
'43_'
'1993_'
'.._'
'. '
'šk'
'šest_'
'šel_'
'še'
'ňovat_'
'če'
'účinnosti_'
'úrokové_'
'ár'
'západní_'
'za'
'výrazně_'
'válce_'
'vid'
'uš'
'určení_'
'touch_'
'testing_'
'sur'
'sun'
'strengthen_'
'story_'
'stn'
'stations_'
'stala_'
'south_'
'sch'
'sauna_'
'san'
'rk'
'representative_'
'přestože_'
'poz'
'povolen'
'používají_'
'potřebu_'
'pos'
'politického_'
'podání_'
'podstatě_'
'podpoře_'
'parents_'
'pa'
'ovým_'
'organizací_'
'one'
'obsah_'
'objev'
'mp'
'možností_'
'luxury_'
'looks_'
'lodi_'
'lo'
'lik'
'lidmi_'
'leží_'
'kur'
'kt'
'jich_'
'jejím_'
'jaderných_'
'initiatives_'
'immediately_'
'ify_'
'hvězdičkami_'
'hor'
'hlavu_'
'hl_'
'hip_'
'gre'
'generation_'
'gap_'
'fondy_'
'fen'
'experts_'
'exercise_'
'eri'
'ement_'
'ei'
'ech'
'eat_'
'dá_'
'dov'
'doc'
'difficulties_'
'dané_'
'concept_'
'committed_'
'command_'
'chá'
'budgetary_'
'ban'
'balcony_'
'associated_'
'appointed_'
'allowing_'
'Town_'
'Those_'
'Teď_'
'Syria_'
'Soviet_'
'Sol'
'So'
'Sar'
'Ph'
'Ne'
'Měli_'
'Mat'
'LA'
'Ku'
'Ke'
'Jsme_'
'IT'
'IP'
'IN'
'Given_'
'Fed_'
'Fe'
'Fa'
'Ernst_'
'Dea'
'Civil_'
'Bez_'
'Art_'
'98_'
'29'
'197'
'12'
'04_'
'00'
') '
'řady_'
'Řecko_'
'ňují_'
'čtvrt'
'úkol_'
'ón'
'áv'
'zásad_'
'zeptal_'
'zdůraznit_'
'zahrnuje_'
'zabránit_'
'ys'
'yp'
'west_'
'většinou_'
'vě_'
'výsledků_'
'vyt'
'vl'
'udržet_'
'ud'
'tým_'
'tí'
'typical_'
'tvář_'
'tours_'
'thereof_'
'technological_'
'substance_'
'subsidies_'
'structures_'
'structural_'
'storage_'
'star'
'stanovisko_'
'sporů_'
'spojených_'
'spi'
'spa'
'son'
'smrti_'
'sky_'
'severe_'
'seriously_'
'screen_'
'rozdělení_'
'respond_'
'remember_'
'referendum_'
'que'
'písm_'
'pul'
'primary_'
'pracovníků_'
'poslanců_'
'položky_'
'polo'
'plné_'
'osi'
'orgánu_'
'oprávněn'
'oprav'
'operace_'
'omezit_'
'oko'
'obědu_'
'novým_'
'newly_'
'nedávné_'
'musejí_'
'mikro'
'mezi'
'meaning_'
'léčby_'
'léta_'
'kvality_'
'ku'
'kr'
'každou_'
'kal'
'ič'
'interesting_'
'integrated_'
'iniciativy_'
'inform_'
'incentives_'
'ideas_'
'ici'
'hr'
'host_'
'globálního_'
'ges_'
'explain_'
'eventually_'
'ere'
'enormous_'
'enc'
'ekonomice_'
'důkazy_'
'disaster_'
'dis'
'dealing_'
'crucial_'
'contain_'
'considerable_'
'condition_'
'compensation_'
'colleagues_'
'cha'
'autor'
'asking_'
'article_'
'argue_'
'Zá'
'Win'
'Vo'
'Two_'
'Set_'
'Rom'
'Q'
'Pra'
'Pat'
'PC_'
'NO'
'Máme_'
'Mus'
'ME'
'Kon'
'Ji'
'Japonsko_'
'Hol'
'El_'
'EM'
'Despite_'
'Dalším_'
'Chi'
'Bude_'
'Bruselu_'
'Articles_'
'Ameriky_'
'Africe_'
'AL'
'72_'
')'
'ε'
'žít_'
'žádnou_'
'žen'
'ět'
'České_'
'úmluv'
'úd'
'zt'
'začátku_'
'zav'
'zaměstnanost_'
'zab'
'xa'
'widely_'
'výroby_'
'vý_'
'vzít_'
'voters_'
'village_'
'vi_'
'uvedeného_'
'určitě_'
'tv'
'ts'
'tre'
'thousands_'
'temporary_'
'tel_'
'takového_'
'stává_'
'strength_'
'stor'
'sta_'
'spread_'
'spravedlnosti_'
'spoken_'
'spojené_'
'soudů_'
'sort_'
'sla'
'skills_'
'ske'
'ser_'
'rá'
'rozdíly_'
'rov'
'rezervovat_'
'resulting_'
'res'
'reg'
'pě'
'prvé_'
'pri'
'pravomoc_'
'pozitivní_'
'posílit_'
'poněvadž_'
'peri'
'ovalo_'
'otázkách_'
'osoba_'
'orn'
'origin_'
'ori'
'okolností_'
'oj'
'ode_'
'ochotn'
'obchodování_'
'nutno_'
'nat'
'mnohé_'
'meetings_'
'mas'
'malý_'
'levné_'
'kolik_'
'kol'
'kitchen_'
'ki'
'jistě_'
'ji'
'jenom_'
'ium_'
'hodnot_'
'go'
'glass_'
'ged_'
'funkce_'
'fre'
'foot_'
'flu'
'flows_'
'fisheries_'
'firms_'
'fail_'
'express_'
'exports_'
'expectations_'
'exception_'
'est'
'ered_'
'entitled_'
'employees_'
'earlier_'
'důkazů_'
'druhou_'
'doufám_'
'dopravu_'
'dluh_'
'din'
'dent'
'decorated_'
'dd'
'contract_'
'concrete_'
'comments_'
'closely_'
'cem_'
'carefully_'
'ca'
'break'
'bodě_'
'balíčku_'
'amending_'
'aktivní_'
'air'
'agriculture_'
'addressed_'
'absolutely_'
'Wi'
'Washington_'
'Vz'
'Uv'
'Tom'
'TA'
'System_'
'Severní_'
'Server_'
'SM'
'Poslední_'
'Once_'
'ON_'
'Nes'
'NI'
'NEW_'
'Irish_'
'Hlavní_'
'Hamas_'
'HO'
'Golf_'
'Furthermore_'
'Foreign_'
'Far'
'Enjoy_'
'Dop'
'Dar'
'DO'
'Cal'
'Bicycle_'
'Balíčky_'
'Bad_'
'Ba'
'Až_'
'Authority_'
'Area_'
'Another_'
'Amendment_'
'Ad'
'AC'
'58_'
'195'
'11'
'-'
'+_'
'škol'
'še_'
'činy_'
'února_'
'ímu_'
'ává_'
'ás'
'website_'
'vysokou_'
'vnitrostátních_'
'vln'
'vlastnictví_'
'vie'
'verzi_'
'ver'
'těž'
'tro'
'trip_'
'trial_'
'tor_'
'thereby_'
'television_'
'surrounding_'
'stranu_'
'square_'
'spolupracovat_'
'spend_'
'slu'
'sledovat_'
'skutečností_'
'signs_'
'sign_'
'seven_'
'schválen'
'roze'
'roz'
'rising_'
'residence_'
'repeated_'
'reflected_'
'recession_'
'quick_'
'quarter_'
'příští_'
'příjezdu_'
'přináší_'
'předpokladu_'
'published_'
'presidential_'
'prepare_'
'používá_'
'plants_'
'per'
'pass_'
'pad'
'ováno_'
'ov'
'ok_'
'obtained_'
'obligation_'
'north_'
'noisy_'
'nezaměstnanosti_'
'neměli_'
'losses_'
'lose_'
'lic'
'lhůty_'
'latter_'
'kové_'
'konat_'
'kami_'
'kam_'
'jo'
'jiným_'
'jedno'
'jediný_'
'jakožto_'
'jakož_'
'iz'
'itelné_'
'isn_'
'introduction_'
'institution_'
'il'
'holding_'
'hlas_'
'hit_'
'hel'
'globalizace_'
'fázi_'
'fuels_'
'fort'
'formou_'
'fitness_'
'firem_'
'fellow_'
'fakt_'
'factors_'
'factor_'
'extensive_'
'expression_'
'error_'
'ená_'
'ens_'
'emn'
'elected_'
'dě'
'duties_'
'drawn_'
'dosaženo_'
'dop'
'dochází_'
'divorce_'
'daní_'
'contracts_'
'combined_'
'cký_'
'chránit_'
'carry_'
'cable_'
'buildings_'
'box_'
'borders_'
'books_'
'bonds_'
'becoming_'
'balíček_'
'architecture_'
'apo'
'ambi'
'Vám_'
'Vi'
'Situated_'
'Roma_'
'Residence_'
'RE'
'Protocol_'
'Prostor_'
'Portugal_'
'Nu'
'Mont'
'Mer'
'Martin_'
'Mal'
'Mac'
'Luxembourg_'
'La'
'Information_'
'Gu'
'Gift_'
'Francii_'
'Executive_'
'Excellent_'
'Es'
'Dra'
'Dom'
'Den'
'Conference_'
'Chtěl_'
'Captain_'
'Bridal_'
'Bre'
'Ban'
'?'
'89_'
'49_'
'46_'
'39_'
'250_'
'24'
'15'
'. _'
'- (_'
'', _'
'!'
'ο'
'ži'
'špatně_'
'řel'
'čně_'
'ústav'
'úst'
'Í'
'zodpovědnost_'
'zlepšit_'
'zin'
'zač'
'zace_'
'win'
'warming_'
'všemi_'
'vět'
'věnovat_'
'vývoje_'
'výsledkem_'
'východě_'
'vzájemně_'
'vyzývá_'
'vstup'
'vil'
'velká_'
'uv'
'uplatňování_'
'una_'
'ult'
'ujete_'
'uh'
'tly_'
'takovou_'
'subsidiarity_'
'stress_'
'stated_'
'staré_'
'sporu_'
'specifically_'
'souborů_'
'sli'
'sledování_'
'sir_'
'significantly_'
'sights_'
'shift_'
'set'
'secure_'
'sea'
'says_'
'rozprava_'
'restrictions_'
'resort_'
'representatives_'
'rejected_'
'předsedy_'
'prázdn'
'provozu_'
'prop'
'promise_'
'presence_'
'povolení_'
'postupně_'
'poro'
'pomalu_'
'pole_'
'podniku_'
'podařilo_'
'planning_'
'pla'
'pil'
'ož'
'otázkou_'
'ost'
'ore'
'ordinary_'
'opposite_'
'odstranění_'
'němu_'
'nit_'
'ng'
'neh'
'ned'
'names_'
'naděje_'
'nab'
'modified_'
'minority_'
'miliony_'
'mes_'
'lit_'
'line'
'lad'
'května_'
'jd'
'instalace_'
'inflace_'
'improvement_'
'ians_'
'humanitární_'
'hra'
'hotelových_'
'hostel_'
'hospodářská_'
'ght_'
'gain_'
'furniture_'
'fur'
'fu'
'fields_'
'fi'
'families_'
'fal'
'eye_'
'ers'
'ených_'
'enlargement_'
'enjoyed_'
'english_'
'energii_'
'element_'
'electricity_'
'důvody_'
'dů'
'dítěte_'
'dveře_'
'drop_'
'dalšími_'
'copy_'
'congratulate_'
'clients_'
'cing_'
'chosen_'
'chl'
'charming_'
'boje_'
'berg_'
'bear_'
'bars_'
'bank'
'ay_'
'avi'
'arrived_'
'ard_'
'appeared_'
'ak_'
'ah_'
'agentury_'
'actual_'
'Zv'
'Ze'
'Za'
'Yeah_'
'West'
'Use_'
'Uni'
'Unfortunately_'
'Turkish_'
'Tro'
'Text_'
'Takže_'
'Ta_'
'Souvenirs_'
'Solarium_'
'See_'
'Sat'
'Sal'
'SS'
'Report_'
'Ren'
'Perhaps_'
'Ostatní_'
'Op'
'Official_'
'Nad'
'NL_'
'Musím_'
'Lu'
'Lebanon_'
'Justice_'
'Jo_'
'High_'
'Br'
'Auto'
'August_'
'At'
'Ar'
'Angel'
'Afghánistánu_'
'AD'
'86_'
'59_'
'21'
', (_'
'); _'
'''_'
'šen'
'čelí_'
'zz'
'zr'
'zavést_'
'yes_'
'ya'
'we'
'výjimkou_'
'výbor_'
'víme_'
'váš_'
'volbách_'
'vo_'
'valid_'
'uznání_'
'ust'
'určitých_'
'ubytovny_'
'třetích_'
'transactions_'
'to'
'teri'
'syn'
'svému_'
'summer_'
'strongly_'
'ster'
'statements_'
'stable_'
'ss'
'spirit_'
'southern_'
'sorry_'
'ski_'
'silně_'
'rž'
'ruku_'
'rokem_'
'rod'
'rest'
'regular_'
'refer_'
'rapidly_'
'původu_'
'příkladem_'
'přep'
'předá'
'pře'
'provádí_'
'projekt_'
'potom_'
'poskytnutí_'
'positions_'
'pohledu_'
'plány_'
'plu'
'plnění_'
'pis'
'pie'
'ovém_'
'organization_'
'opi'
'oni_'
'omo'
'omezen'
'obvious_'
'oa'
'nutná_'
'nov'
'nezbytná_'
'neustále_'
'měsíce_'
'moving_'
'mostly_'
'mise_'
'mezinárodním_'
'mechanism_'
'látek_'
'leh'
'leaving_'
'kuřáky_'
'konec_'
'ker_'
'ju'
'isk'
'inte'
'improvements_'
'ile'
'ideally_'
'hu'
'hop'
'hled'
'helping_'
'governance_'
'gon'
'ga'
'fan'
'exactly_'
'ets_'
'estimated_'
'equivalent_'
'equality_'
'emergency_'
'ect'
'doma_'
'diseases_'
'deseti_'
'dav'
'cz_'
'crew_'
'controls_'
'contrast_'
'consensus_'
'commitments_'
'collective_'
'cli'
'cestou_'
'celá_'
'cc'
'causes_'
'capable_'
'cal'
'byt'
'bul'
'broad_'
'bla'
'awarded_'
'av'
'au_'
'aspect_'
'as'
'aplikace_'
'americká_'
'alo'
'ai'
'Zb'
'Trade_'
'Sou'
'Samozřejmě_'
'RA'
'Potřebujeme_'
'Pakistan_'
'Maybe_'
'Maria_'
'Mag'
'MI'
'Lidé_'
'LI'
'Jde_'
'Ge'
'Gar'
'Fo'
'Euro_'
'Earth_'
'Doufám_'
'Cap'
'BE'
'?'_'
'26'
'...'
'),_'
' ?_'
' -, _'
'“'
'с'
'ρ'
'α'
'ších_'
'čínské_'
'částí_'
'čt'
'čin'
'čení_'
'čele_'
'íz'
'ících_'
'Íránu_'
'záležitost_'
'způsobil'
'zo'
'zl'
'zemědělských_'
'zaměstnání_'
'založení_'
'zacházení_'
'yo'
'work'
'warning_'
'waiting_'
'výzvy_'
'vzájemné_'
'vztah_'
'vyz'
'vydání_'
'vládou_'
'vlastních_'
'vital_'
'val'
'ures_'
'urban_'
'unt'
'un'
'události_'
'týkají_'
'tá'
'top'
'toilet_'
'tisíc_'
'tha'
'tea_'
'supports_'
'subjekty_'
'studie_'
'stood_'
'stone_'
'sse'
'spočívá_'
'spouses_'
'spolu'
'spo'
'soustav'
'soudních_'
'smlouvu_'
'signed_'
'signal_'
'sie'
'separate_'
'sebe'
'schopni_'
'sazeb_'
'sanctions_'
'samotné_'
'ráno_'
'rte'
'rot'
'rol'
'replaced_'
'remained_'
'rem_'
'refugees_'
'recommended_'
'rav'
'ras'
'rank'
'přijata_'
'přeshraniční_'
'protokolu_'
'prohlásil_'
'počátku_'
'podnikání_'
'podaří_'
'ph'
'permit_'
'percentage_'
'pension_'
'parti'
'parliamentary_'
'paper_'
'pan'
'pain_'
'pa_'
'označen_'
'oteplování_'
'organism'
'odpovídající_'
'occur_'
'obzvláště_'
'obe'
'nějakou_'
'ník'
'nt'
'nepod'
'nejdříve_'
'nda'
'našem_'
'nast'
'nak'
'mě'
'mužů_'
'muži_'
'mutual_'
'motion_'
'mnozí_'
'mm_'
'ml'
'min'
'mimořádně_'
'mil'
'meta'
'mel'
'med_'
'loď_'
'lodí_'
'll'
'lity_'
'lift_'
'ká'
'killed_'
'kill_'
'jaderné_'
'invest_'
'initial_'
'indicate_'
'im'
'ih'
'hou'
'hod'
'hned_'
'happens_'
'grow_'
'functioning_'
'figure_'
'ffe'
'facts_'
'eth'
'ering_'
'enterprises_'
'eight_'
'důležitý_'
'druhy_'
'download_'
'dovolit_'
'dol'
'dokumenty_'
'disk'
'devices_'
'desetiletí_'
'demokratické_'
'daňových_'
'dal_'
'dal'
'cru'
'creditors_'
'courses_'
'comply_'
'completed_'
'client_'
'cky_'
'ching_'
'character_'
'cesta_'
'category_'
'cap'
'bn'
'articles_'
'alle'
'affect_'
'adjustment_'
']_'
'Wall_'
'Vice_'
'Tak'
'Sp'
'Radou_'
'Přestože_'
'Pr'
'Port'
'Paul_'
'Packed_'
'Nap'
'Minutes_'
'Lunches_'
'Kol'
'Is'
'IA'
'Hyper_'
'Georgia_'
'Fra'
'Federal_'
'Existuje_'
'Every_'
'Er'
'Edition_'
'EN_'
'Dan'
'Ber'
'Au'
'Arm'
'Argentina_'
'Anti'
'Afghanistan_'
'85_'
'81_'
'/'
'. (_'
'т'
'τ'
'ěl'
'čtí_'
'členství_'
'čelit_'
'účinnost_'
' % _'
'závisí_'
'zástupci_'
'zásadě_'
'základního_'
'zvyšuje_'
'zvlášť_'
'zk'
'zjevně_'
'zdaleka_'
'zbraně_'
'zb'
'začíná_'
'zavádění_'
'yš'
'xi'
'windows_'
'vše'
'vstupu_'
'virus_'
'vet'
'uvedl_'
'určitou_'
'upgrade_'
'unde'
'unable_'
'uhl'
'tit'
'tho'
'ther_'
'tent'
'tem_'
'tar'
'talks_'
'taky_'
'sym'
'surprise_'
'supporting_'
'supplies_'
'submit_'
'stanoviska_'
'snaze_'
'snahy_'
'smysl_'
'sil'
'serveru_'
'sens'
'sdělení_'
'ru'
'rozhodnutím_'
'ros'
'rom'
'revenue_'
'resource_'
'represents_'
'reflect_'
'recommendations_'
'recognised_'
'rd'
'ran_'
'příloze_'
'příkaz'
'převod'
'přesvědčení_'
'předložit_'
'pursue_'
'protest'
'potraviny_'
'police_'
'pokr'
'pohyb'
'poděkovat_'
'platnosti_'
'pit'
'perspective_'
'periods_'
'pati'
'pam'
'pages_'
'over'
'ova'
'ov_'
'otevřené_'
'ora'
'nárok_'
'nti'
'nik'
'nights_'
'nezv'
'nejvíce_'
'neither_'
'negativní_'
'nav'
'natolik_'
'named_'
'nam'
'nalézt_'
'měnové_'
'mír_'
'my'
'muže_'
'mus'
'mov'
'mountain_'
'mot'
'mladší_'
'mental_'
'ment'
'machines_'
'liv'
'lis'
'lie_'
'lidu_'
'kům_'
'ken'
'jn'
'jisté_'
'jednotliv'
'jednom_'
'improved_'
'ili'
'ible_'
'horší_'
'healthy_'
'hardware_'
'ger'
'games_'
'fungování_'
'front'
'free'
'formal_'
'follows_'
'fli'
'flexible_'
'feature_'
'falling_'
'extreme_'
'evaluation_'
'ett'
'ese_'
'ents_'
'egi'
'eas'
'děl'
'dri'
'dolaru_'
'dobrý_'
'dm'
'definition_'
'declaration_'
'debtor_'
'dea'
'dalšího_'
'customs_'
'ctive_'
'couldn_'
'contributions_'
'contrary_'
'concluded_'
'compliance_'
'chráněn'
'buy_'
'bro'
'boy_'
'bankovní_'
'aro'
'aný_'
'ants_'
'americký_'
'ag'
'accessible_'
'Wo'
'Tha'
'Světové_'
'Sto'
'Si'
'Saudi_'
'SO'
'Reco'
'Radu_'
'Při'
'Pou'
'OR'
'Měl_'
'Musí_'
'Masáže_'
'Language_'
'Kor'
'Klingon_'
'Kdyby_'
'Kdo_'
'Každý_'
'Joint_'
'Ham'
'HU_'
'Ex'
'Ev'
'Ed'
'EN'
'Che'
'Center_'
'4'
'36'
'35'
'31'
'1991_'
'1980_'
'198'
'02'
', - _'
'… _'
'životy_'
'žit'
'žena_'
'ště'
'částky_'
'člověka_'
'členský_'
'členové_'
'ör'
'íš_'
'ír'
'áž'
'áli'
'}}) _'
'zápis_'
'zovat_'
'zov'
'zing_'
'zast'
'worst_'
'wireless_'
'wider_'
'whatever_'
'ward_'
'věřitel'
'věstníku_'
'vítězství_'
'vítám_'
'válku_'
'vyhnout_'
'volného_'
'voleb_'
'vol'
'vlastního_'
'veřejnosti_'
'vely_'
'vaší_'
'van_'
'uč'
'universal_'
'una'
'ual_'
'trouble_'
'trend_'
'tradiční_'
'tional_'
'theory_'
'terrorist_'
'takovým_'
'suitable_'
'sports_'
'spl'
'societies_'
'sleep_'
'ském_'
'skutečné_'
'silné_'
'shot_'
'sho'
'session_'
'sad'
'rp'
'river_'
'restore_'
'represented_'
'repair_'
'regionů_'
'reagovat_'
'raději_'
'půdy_'
'přítel'
'přílohy_'
'prvky_'
'profile_'
'problémem_'
'pretty_'
'praxe_'
'potřebovat_'
'platit_'
'phase_'
'pevn'
'pers'
'pe_'
'partner_'
'oš'
'oxid'
'ovými_'
'ond'
'oi'
'občanského_'
'obsahu_'
'oba_'
'nímu_'
'návštěv'
'nutí_'
'nou'
'nim_'
'neš'
'nezávislost_'
'místních_'
'míra_'
'má'
'musíte_'
'multi_'
'mobile_'
'mluvit_'
'ml_'
'miliardy_'
'mezinárodního_'
'mass_'
'loans_'
'lin'
'lie'
'ld'
'konfliktu_'
'koliv_'
'klad'
'ki_'
'ket'
'kart'
'kam'
'jeví_'
'ja_'
'ií_'
'intellectual_'
'inspection_'
'inov'
'inn'
'industries_'
'hro'
'housing_'
'hlavy_'
'heavy_'
'hard'
'gan'
'fra'
'formě_'
'forget_'
'figures_'
'fighting_'
'exclusive_'
'ethnic_'
'ended_'
'ejí_'
'ec'
'důležitou_'
'dění_'
'dy'
'dvoulůžkový_'
'dovol'
'dou_'
'dostal_'
'dob'
'dnů_'
'dly_'
'diskusi_'
'dinner_'
'die'
'depends_'
'defend_'
'daňové_'
'ction_'
'crises_'
'convinced_'
'containing_'
'col'
'cn'
'clock_'
'ckých_'
'chi'
'cer'
'careful_'
'campaign_'
'býval'
'brát_'
'blood_'
'bin'
'bilateral_'
'bat'
'až'
'ard'
'approval_'
'apparent_'
'aktivity_'
'ada'
'Would_'
'Vel'
'Tru'
'Takové_'
'Sv'
'Sec'
'ST'
'Regional_'
'RO'
'Prov'
'PE'
'OJ_'
'Note_'
'Nech'
'Navzdory_'
'Mas'
'Lze_'
'Lou'
'Kosmetika_'
'Jen_'
'Jedna_'
'Jak'
'Hy'
'Hong_'
'Geneva_'
'Funds_'
'Done_'
'Dis'
'Congress_'
'Com'
'Cohesion_'
'Club_'
'Car'
'Brazil_'
'Action_'
'AS'
'AND_'
'AN'
';'
'67_'
'56_'
'33'
'28'
'27'
'1994_'
'193'
' %._'
'– _'
'ι'
'životě_'
'živ'
'štění_'
'šesti_'
'řídit_'
'ěné_'
'částku_'
'čtení_'
'členském_'
'ček_'
'úspěchu_'
'úmluvy_'
'zvuk'
'zvolen'
'zma'
'zlo'
'zh'
'zdrav'
'zdarma_'
'zar'
'zabývat_'
'wouldn_'
'wife_'
'watch_'
'všechna_'
'výrobu_'
'výběr_'
'vztahuje_'
'vyšetřování_'
'vytvářet_'
'vych'
'vulnerable_'
'vra'
'vpřed_'
'vozidel_'
'volume_'
'vně_'
'vity_'
'už'
'use'
'tře'
'tzv_'
'typ_'
'tom'
'tj_'
'the'
'takovém_'
'sítí_'
'surrounded_'
'suddenly_'
'středních_'
'stál'
'ssion_'
'skutečnou_'
'sk'
'sit_'
'see'
'rámce_'
'rychlost_'
'ruš'
'rozhraní_'
'rop'
'ric'
'ria_'
'restructuring_'
'republika_'
'replace_'
'relax_'
'regulace_'
'realit'
'rating_'
'radio_'
'rada_'
'quarters_'
'přítomn'
'příspěvek_'
'přiměřen'
'průmyslové_'
'prů'
'protected_'
'promoting_'
'priorit'
'precautionary_'
'počítače_'
'povinností_'
'povinn'
'pova'
'port'
'pol'
'paying_'
'path'
'partnership_'
'participate_'
'output_'
'ore_'
'oral_'
'oo'
'ont'
'odn'
'obrátit_'
'obecn'
'nými_'
'nádraží_'
'nost'
'non'
'nom'
'nis'
'nezaměstnanost_'
'new'
'nar'
'nan'
'naléhavě_'
'naleznete_'
'měny_'
'mrtv'
'mn'
'minor_'
'ming_'
'meant_'
'maybe_'
'mat'
'lounge_'
'lem_'
'kým_'
'kup'
'kontextu_'
'konkrétně_'
'kod'
'klient'
'jiná_'
'jinou_'
'jejíž_'
'jejímž_'
'jedině_'
'ior'
'involving_'
'involvement_'
'informační_'
'indoor_'
'indicated_'
'index_'
'inde'
'ib'
'hospodářských_'
'hood_'
'hm'
'hledání_'
'has'
'hall_'
'gu'
'gh'
'fruit_'
'fore'
'flat_'
'fied_'
'ff'
'fell_'
'excessive_'
'ený_'
'emi'
'ekonomického_'
'educational_'
'eastern_'
'druhý_'
'dostanete_'
'dluhopisů_'
'divided_'
'dining_'
'developments_'
'design'
'deset_'
'deb'
'cy'
'cul'
'consistent_'
'chov'
'bs'
'bran'
'bound_'
'boasts_'
'balanced_'
'az'
'aut'
'ari'
'appeal_'
'announced_'
'ang'
'amo'
'alternativ'
'aktiv_'
'aga'
'advantage_'
'aci'
'Zo'
'Zatímco_'
'Zaprvé_'
'YORK_'
'Wiki'
'Váš_'
'Vá'
'Vienna_'
'Up'
'UR'
'Special_'
'Sarkozy_'
'Sand'
'Sam'
'Ruskem_'
'Res'
'Q_'
'Pu'
'Prob'
'Like_'
'Japanese_'
'Island_'
'Indian_'
'Harry_'
'Get_'
'Gen'
'Fre'
'Frankfurt_'
'For'
'EUROPEAN_'
'Dr_'
'Dobře_'
'Dam'
'Come_'
'Col'
'Close_'
'Chceme_'
'Char'
'Case_'
'Bro'
'Bri'
'Bas'
'74_'
'25'
'2014_'
'20'
'0s_'
'('
' + _'
'д'
'žije_'
'šení_'
'ě'
'čné_'
'účtován_'
'úh'
'ía_'
'éz'
'ér'
'án'
'álních_'
'závislosti_'
'zu_'
'ztráty_'
'zne'
'zko'
'zení_'
'zal'
'zahrad'
'yk'
'ya_'
'wrote_'
'write_'
'waters_'
'water'
'vědí_'
'významný_'
'více'
'vyžadovat_'
'vyřešit_'
'vystaven'
'vyjádřit_'
'vládě_'
'vis_'
'vers'
'vehicle_'
'vedle_'
'uvědom'
'usual_'
'uk'
'událostí_'
'tří'
'třebaže_'
'tělo_'
'tvrzení_'
'tradition_'
'tou'
'tn'
'time'
'sí'
'suites_'
'sugar_'
'suffering_'
'střet'
'stin'
'sten'
'službu_'
'sle'
'sia_'
'she'
'sharing_'
'sets_'
'seri'
'sensitive_'
'sel'
'sektor_'
'schválení_'
'sale_'
'ré'
'run'
'rozv'
'rozpočtové_'
'roughly_'
'rodiny_'
'rn'
'rip'
'resolve_'
'republice_'
'reported_'
'remaining_'
'reject_'
'regulační_'
'rec'
'reaching_'
'působí_'
'příštích_'
'přístav'
'přís'
'přípravku_'
'předsed'
'předpokládá_'
'pěšky_'
'put'
'ps_'
'právním_'
'proportion_'
'pravomocí_'
'pp'
'povol'
'potenciál_'
'postelí_'
'poskytnut'
'poptávky_'
'poly'
'pokles_'
'platform'
'pes_'
'permanent_'
'peoples_'
'partner'
'partition_'
'oř'
'oznámen'
'owing_'
'ovaný_'
'outdoor_'
'oficiální_'
'odv'
'odk'
'obnovy_'
'názory_'
'noci_'
'nic'
'nesou'
'navržen'
'navrhuje_'
'nastaven'
'nac'
'multilateral_'
'mou_'
'mos'
'mit'
'minister_'
'metody_'
'messages_'
'meat_'
'mandate_'
'lit'
'licence_'
'lending_'
'lan'
'kám_'
'konference_'
'kategorie_'
'judge_'
'jo_'
'jm'
'jinde_'
'ities_'
'iteln'
'ist'
'ised_'
'io'
'investigation_'
'indi'
'illi'
'identified_'
'ide'
'ický_'
'ian'
'há'
'hrd'
'hovořit_'
'holiday_'
'hlavou_'
'hl'
'hing_'
'hi_'
'had'
'glu'
'gh_'
'gal'
'fungovat_'
'functions_'
'fees_'
'faith_'
'expert_'
'exceptional_'
'ev_'
'energií_'
'ena'
'emo'
'ekonomik_'
'eh'
'efektivní_'
'dostupnost_'
'dopady_'
'dollars_'
'dokumentu_'
'disku_'
'discussed_'
'discuss_'
'deliver_'
'delay_'
'defe'
'deaths_'
'database_'
'counter_'
'continuing_'
'conflicts_'
'component_'
'communications_'
'com'
'cke'
'chy_'
'chtěli_'
'can'
'calling_'
'burg_'
'bojovat_'
'bodů_'
'blo'
'ber_'
'automaticky_'
'automatically_'
'ara'
'appreciate_'
'amp_'
'ages_'
'affairs_'
'advokát'
'aa'
'Země_'
'Zav'
'Without_'
'Who_'
'Vie'
'Veřejné_'
'Vaše_'
'VE'
'UPS_'
'Translation_'
'Tor'
'Times_'
'Ter'
'Tennis_'
'Tal'
'Stále_'
'Strategy_'
'Ste'
'St'
'Sn'
'Sisko_'
'Sha'
'Sch'
'Poz'
'Pop'
'PR'
'Or'
'On'
'Ner'
'NH_'
'Monetary_'
'MA'
'Len'
'Kong_'
'Kom'
'Kadeřnictví_'
'Jelikož_'
'Jedno_'
'Jakmile_'
'Ir'
'Han'
'Golden_'
'Fri'
'Fer'
'Federation_'
'Euratom_'
'ER'
'EEA_'
'Data_'
'DS9_'
'CC'
'Brazílie_'
'Both_'
'Babylon_'
'Ass'
'Asii_'
'Any_'
'Ali'
'Air_'
'AIDS_'
'AB'
'82_'
'57_'
'400_'
'2hvězdičkový_'
'1996_'
'1992_'
'194'
'06'
'03'
', '_'
'({{_'
' )._'
' ) , _'
'šího_'
'štěstí_'
'škod'
'ěž'
'či'
'čen'
'ývá_'
'účinek_'
'ús'
'úpravy_'
'ést_'
'él'
'zítra_'
'závěry_'
'závazek_'
'zájem_'
'zvýšen'
'zpracování_'
'znamenat_'
'znak'
'začali_'
'zavedl'
'zaveden'
'založené_'
'zahájen'
'zad'
'zachovat_'
'yz'
'youth_'
'ws_'
'wor'
'widespread_'
'významně_'
'výhody_'
'vá'
'vyžadují_'
'vyk'
'vyj'
'vyh'
'vyd'
'vor'
'vision_'
'vis'
'vedou_'
'urgent_'
'upraven'
'uplatnit_'
'unacceptable_'
'ultimately_'
'ues_'
'twenty_'
'tup'
'tit_'
'tests_'
'tend_'
'tal'
'tag'
'suffered_'
'střel'
'stěn'
'student_'
'stránka_'
'strop'
'strengthening_'
'strach_'
'stra'
'stop'
'staying_'
'stanovených_'
'stanoveny_'
'společných_'
'splňující_'
'sought_'
'soubory_'
'soil_'
'sně'
'sno'
'snadné_'
'smaller_'
'sis_'
'shape_'
'setkání_'
'separation_'
'sco'
'savings_'
'saving_'
'sat_'
'rybolovu_'
'rodičů_'
'rodiče_'
'rit'
'rig'
'rib'
'ren'
'registration_'
'ration_'
'ral_'
'ra'
'původní_'
'přízniv'
'přilehlém_'
'přijala_'
'přes'
'předloží_'
'push_'
'purchase_'
'publication_'
'prov'
'prosinci_'
'pros'
'primarily_'
'preparation_'
'pozv'
'postupem_'
'postup'
'politicky_'
'pointed_'
'pochopit_'
'ploch'
'platby_'
'personnel_'
'pen'
'očí_'
'ovn'
'ot'
'operational_'
'ony_'
'onto_'
'oma'
'ola'
'odpovědnosti_'
'odkaz'
'odborn'
'obo'
'nte'
'nn'
'nijak_'
'nespo'
'nem'
'nedostatek_'
'native_'
'mínění_'
'monitor_'
'mléka_'
'mlad'
'ministers_'
'mer_'
'mb'
'mati'
'marketing_'
'maintained_'
'lum'
'lor'
'lod'
'lhůta_'
'legitimate_'
'leads_'
'lav'
'kor'
'konkurenceschopnosti_'
'komisařko_'
'klíčové_'
'klu'
'klasifikován_'
'kh'
'kas'
'jí'
'jimž_'
'jejího_'
'ivo'
'island_'
'irre'
'investiční_'
'inu_'
'immigrants_'
'ik_'
'hundreds_'
'hrát_'
'hranici_'
'harm_'
'guidelines_'
'greenhouse_'
'globalization_'
'girl_'
'focused_'
'flight_'
'feeling_'
'exists_'
'evropským_'
'eurozóně_'
'enz'
'entrance_'
'ensi'
'enjoys_'
'elsewhere_'
'ee'
'eco'
'děkuji_'
'dumping_'
'drží_'
'druhů_'
'druhu_'
'dočasn'
'dom'
'dohledu_'
'dobrá_'
'dej'
'deficits_'
'counter'
'continent_'
'cká_'
'centrally_'
'celní_'
'categories_'
'bur'
'brání_'
'bringing_'
'boost_'
'booked_'
'blízkosti_'
'blok'
'ban_'
'ačkoliv_'
'ay'
'autorit'
'audio_'
'arms_'
'approximately_'
'amerického_'
'aktuální_'
'ade'
'Web'
'Více_'
'Venkovní_'
'Ven'
'Swiss_'
'Sever'
'SE'
'Pos'
'Pom'
'Pla'
'Peter_'
'Obecné_'
'Nic_'
'Name_'
'Mohu_'
'Mari'
'Lázeňské_'
'Kal'
'KO'
'Jízda_'
'Jean_'
'Jadzia_'
'Itálii_'
'Fu'
'Fire'
'Fil'
'FA'
'Environment_'
'Debianu_'
'DI'
'DE'
'Cho'
'Chapter_'
'Change_'
'Ch'
'Bay_'
'BO'
'Ať_'
'Ale'
'Ah'
'78_'
'69_'
'60'
'41'
'1989_'
'. „_'
'$_'
'ِ_'
'ša'
'ře'
'ňa'
'ň'
'ěl_'
'čn'
'účasti_'
'územní_'
'íř'
'év'
'ární'
'získání_'
'závěr_'
'zákonem_'
'zpravodaj'
'značně_'
'znal'
'zle'
'zhorš'
'zda'
'začala_'
'zas'
'wan'
'wake_'
'výst'
'vámi_'
'vzniku_'
'vzduchu_'
'vytváří_'
'vyjednávání_'
'vybrat_'
'vu_'
'vstupuje_'
'vrátit_'
'vk'
'vin_'
'vd'
'vaši_'
'vašeho_'
'utn'
'unií_'
'unity_'
'undertaking_'
'underground_'
'und'
'ume'
'ula_'
'udělen'
'uc'
'týdnů_'
'tváří_'
'ture_'
'truly_'
'transparent_'
'transfer'
'tohle_'
'titul'
'tin'
'tai'
'symbol_'
'sum_'
'substantial_'
'stí'
'strukturální_'
'strategies_'
'stornována_'
'stopped_'
'sto'
'ster_'
'state'
'srdce_'
'správní_'
'spokojen'
'speaking_'
'smí'
'slo'
'skutečný_'
'sides_'
'sh'
'ses'
'sb'
'rů_'
'rz'
'ruk'
'rightly_'
'revolution_'
'rch'
'rati'
'rat'
'působnosti_'
'příslušný_'
'příjem_'
'představit_'
'pán'
'pushed_'
'pt'
'prost'
'projevu_'
'prezident'
'precisely_'
'pr'
'požadavků_'
'použije_'
'potřeb'
'posouzení_'
'porušování_'
'pomůže_'
'politically_'
'polite_'
'policymakers_'
'pokračoval'
'pn'
'plyn'
'pet'
'para_'
'pal'
'oživení_'
'ove'
'ovaná_'
'ovan'
'ostatními_'
'osm'
'op_'
'ongoing_'
'oh'
'obr'
'nárůst_'
'numerous_'
'notified_'
'nit'
'nest'
'nese_'
'nařízením_'
'nahrazuje_'
'mysli_'
'mut'
'moři_'
'mou'
'motorway_'
'mono'
'moderate_'
'mo_'
'mne_'
'merely_'
'medi'
'mask'
'map'
'lp'
'los_'
'loo'
'logi'
'lobby_'
'lli'
'lists_'
'lh'
'letecké_'
'lady_'
'la'
'kontakt'
'konkurenční_'
'komisař_'
'kap'
'kan'
'jednotky_'
'ized_'
'ins'
'inh'
'ied_'
'idi'
'hranic_'
'hospitality_'
'hnutí_'
'gui'
'greatest_'
'gonna_'
'genuine_'
'generated_'
'ft'
'formu_'
'formed_'
'foot'
'firm_'
'fill_'
'fil'
'fik'
'fi_'
'feed_'
'explained_'
'exc'
'eura_'
'eta'
'ere_'
'emphasis_'
'emerge_'
'ekonomickou_'
'edge_'
'dávky_'
'dynamic_'
'dry_'
'dor'
'dokument_'
'dodávek_'
'dny_'
'discussions_'
'depend_'
'del'
'defense_'
'decor_'
'danger_'
'cutting_'
'constitute_'
'conditioned_'
'computers_'
'comfortably_'
'coal_'
'cháp'
'chu_'
'chod'
'ches_'
'cent_'
'candidate_'
'bydliště_'
'bu_'
'bon'
'bod'
'bes'
'azi'
'aw'
'assume_'
'asset_'
'aná_'
'ante'
'ani'
'ancient_'
'amounts_'
'ama'
'ac'
']]_'
']] [[_'
'Vysoký_'
'Vil'
'Velké_'
'USB_'
'US'
'UNI'
'Trans'
'TO_'
'Sweden_'
'Sur'
'Summit_'
'Sub'
'Směrnice_'
'Small_'
'Science_'
'SP'
'SI'
'Rea'
'ROM_'
'Přes'
'Program_'
'Pov'
'Post'
'Pok'
'Parties_'
'Om'
'OK_'
'Nový_'
'NC'
'Místo_'
'Mur'
'Mc'
'May'
'Lord_'
'Kr'
'Kde_'
'Journal_'
'Jer'
'Jeden_'
'Jan_'
'Irsku_'
'IS'
'Hal'
'HIV_'
'Gran_'
'Fla'
'Finanční_'
'FI'
'England_'
'Employment_'
'EC'
'Dámy_'
'Dovolte_'
'Dos'
'Designated_'
'Democrats_'
'DVDRip_'
'Costa_'
'Chci_'
'Cat'
'Camp'
'CO'
'Bol'
'Board_'
'Asie_'
'40'
'215'
', „_'
'* / _'
' "'
'‘_'
'ěla_'
'čná_'
'černo'
'Ča'
'účtu_'
'úkon'
'ó_'
'íne'
'áze'
'Úředním_'
'zí'
'základn'
'záchran'
'zjištění_'
'zero_'
'zaměřen'
'zahraničních_'
'xo'
'wines_'
'wer'
'welcoming_'
'walls_'
'wall_'
'vůli_'
'vyvážen'
'vysvětlení_'
'vražd'
'vozidla_'
'vou_'
'von_'
'večer_'
'vast_'
'uživatelů_'
'uran'
'united_'
'uměl'
'umožnit_'
'ule'
'ukázala_'
'uděl'
'ty'
'transparentnosti_'
'tov'
'tlak_'
'tl'
'tam'
'tak'
'síťov'
'sí_'
'sy'
'supervision_'
'succeed_'
'studené_'
'stro'
'stejný_'
'stanovil'
'stabilitu_'
'společenstvím_'
'soukromých_'
'soukromého_'
'soudce_'
'sor'
'smlouvě_'
'slouží_'
'slightly_'
'sized_'
'sions_'
'silný_'
'shed_'
'shadow_'
'sf'
'schválil'
'schopna_'
'sar'
'samy_'
'rs'
'rozp'
'rozhodování_'
'rozhodl_'
'revenues_'
'responsibilities_'
'regularly_'
'ree'
'recognise_'
'read'
'qualified_'
'přiv'
'přispěl'
'překr'
'py_'
'ps'
'právu_'
'prováděn'
'prostorách_'
'profit_'
'produktivity_'
'požádat_'
'potřeb_'
'pota'
'possibly_'
'poskytovat_'
'poskytne_'
'poptávka_'
'podobné_'
'platební_'
'pl'
'pin'
'partly_'
'oči'
'opa'
'oddělení_'
'odbor'
'obraz'
'něhož_'
'národního_'
'nz'
'nta'
'notification_'
'noted_'
'none_'
'nk'
'nes_'
'nejz'
'ndi'
'nde'
'nabídky_'
'měsících_'
'muž_'
'mra'
'mr'
'moment'
'mol'
'mladých_'
'mini'
'met'
'maxim'
'materiály_'
'mai'
'lék'
'ls'
'lož'
'ley_'
'late'
'lake_'
'kolegové_'
'kně'
'jun'
'judgment_'
'jist'
'jednotn'
'jediným_'
'jedinou_'
'jasný_'
'jakmile_'
'iva'
'iti'
'items_'
'ita_'
'ise'
'isation_'
'integraci_'
'inovace_'
'inflaci_'
'inclusion_'
'imposed_'
'ima'
'id'
'ic'
'hů'
'hrad'
'houses_'
'hladin'
'heat_'
'head'
'gri'
'gram'
'golf_'
'globálním_'
'gen_'
'funkci_'
'fr'
'finančním_'
'ffi'
'experienced_'
'existovat_'
'euro'
'esi'
'equally_'
'ease_'
'dus'
'dru'
'driving_'
'drivers_'
'drinks_'
'doručení_'
'doklad'
'dojít_'
'dohod_'
'dit'
'display_'
'disc'
'died_'
'demonstrated_'
'delivered_'
'debts_'
'debat'
'dealt_'
'cry'
'connections_'
'conducted_'
'co'
'cia'
'chyb_'
'che'
'cent'
'cash_'
'calculated_'
'bud'
'bright_'
'bol'
'blízko_'
'blue_'
'blow'
'ble'
'bit'
'bili'
'bezpečnostních_'
'battle_'
'barv'
'band'
'award_'
'ateln'
'army_'
'ame'
'ali'
'ala'
'ai_'
'adapt_'
'achieving_'
'[ _'
'Zu'
'Ye'
'Wor'
'Wellness_'
'War'
'Wa'
'Vis'
'Var'
'Ur'
'Unii_'
'Tím_'
'Sy'
'Super'
'Subject_'
'Starfleet_'
'Slovakia_'
'Silv'
'Show_'
'Shi'
'SC'
'Rusku_'
'Rus'
'RI'
'Předmět_'
'Pá'
'Procedure_'
'Pol_'
'Po'
'Over'
'Organisation_'
'Obchody_'
'Národní_'
'Nová_'
'Not'
'New'
'Nat'
'Massage_'
'Main_'
'Mad'
'Kin'
'Jižní_'
'ID_'
'Gri'
'Food_'
'File_'
'Em'
'Dutch_'
'Dokonce_'
'Democratic_'
'Dal'
'Cro'
'Copenhagen_'
'Conc'
'Beauty_'
'BR'
'BA'
'Arabia_'
'Aparthotel_'
'Americe_'
'Ac'
'ALDE_'
'68_'
'6'
'54'
', [_'
')?_'
'ت_'
'н'
'žádá_'
'ší'
'řádně_'
'ři'
'ř_'
'ěrn'
'ěr'
'ěme_'
'ď'
'čky_'
'útok_'
'úlohy_'
'údajně_'
'ína'
'íd'
'Ý'
'Úř_'
'É_'
'západ'
'zájmů_'
'zu'
'zpátky_'
'zpráv_'
'zpravodaj_'
'zdravotnictví_'
'zaměřené_'
'winning_'
'welfare_'
'weigh'
'wal'
'většině_'
'věst_'
'významným_'
'vým_'
'výk'
'víte_'
'vážné_'
'vznikl'
'vytváření_'
'vyhlášení_'
'vlastním_'
'velkým_'
'ved_'
'uživatele_'
'uvést_'
'určitá_'
'určit_'
'ury_'
'ura'
'university_'
'ue'
'ud_'
'tě'
'tá_'
'tude_'
'tru'
'trick'
'travellers_'
'transition_'
'til'
'tich'
'tea'
'světl'
'surface_'
'sum'
'suggested_'
'suggest_'
'successfully_'
'substances_'
'subsequent_'
'stře'
'studi'
'stru'
'stroj'
'stanoven'
'spotřebitele_'
'span'
'sp'
'sovereign_'
'soudnictví_'
'softwaru_'
'snížen'
'směr'
'sme'
'skr'
'situations_'
'sex_'
'sever'
'sek'
'sec'
'schopen_'
'sala'
'rán'
'rozm'
'rozhodla_'
'rg'
'rezerv'
'returned_'
'resistance_'
'reserve_'
'rese'
'recognize_'
'raw_'
'quota_'
'přísn'
'přet'
'přeprav'
'překážky_'
'překlad'
'písemností_'
'ptá'
'proud'
'prot'
'proměn'
'produktu_'
'produkci_'
'produk'
'processes_'
'probíhá_'
'praktik'
'prakticky_'
'pověřen'
'považován'
'postoje_'
'pok'
'podat_'
'planned_'
'planety_'
'parliaments_'
'panel_'
'ought_'
'organizations_'
'ona'
'oje'
'odpověděl_'
'odpad'
'odp'
'odhodlání_'
'oddíl'
'objem_'
'objekt'
'něž_'
'němuž_'
'níže_'
'ník_'
'náprav'
'námořní_'
'náhrad'
'nucen'
'novin'
'normally_'
'nk_'
'nesmírně_'
'neměly_'
'nek'
'nedokázal'
'nedo'
'nebe'
'napo'
'měsíc_'
'musel_'
'motiv'
'mon'
'mnou_'
'mir'
'migrants_'
'luxusní_'
'lived_'
'list'
'lid_'
'liberal_'
'lehk'
'leg'
'learned_'
'launch_'
'káv'
'kti'
'kterému_'
'ks'
'krá'
'kre'
'komp'
'kinds_'
'jimiž_'
'jemn'
'ization_'
'ith'
'iso'
'involves_'
'ibi'
'hoo'
'honor'
'hodnotě_'
'hod_'
'gy_'
'guide_'
'grand'
'governing_'
'gor'
'globálních_'
'geni'
'gel'
'gas'
'gar_'
'frame'
'fossil_'
'flood'
'flexibility_'
'finding_'
'film'
'female_'
'faced_'
'fac'
'ečn'
'exposed_'
'explore_'
'examples_'
'evropští_'
'everywhere_'
'ev'
'estr'
'escape_'
'em'
'economists_'
'east_'
'dostatek_'
'domov'
'dokáže_'
'docela_'
'dni_'
'distributed_'
'discerning_'
'disa'
'diplomatic_'
'digit'
'dial_'
'ders_'
'demon'
'demo'
'defence_'
'dalo_'
'crimes_'
'corner_'
'conta'
'constitution_'
'conclusions_'
'combat_'
'collection_'
'clo'
'cis'
'cards_'
'cab'
'bíl'
'bun'
'bou_'
'bomb'
'background_'
'author_'
'aside_'
'asi'
'ambitious_'
'ající_'
'aje_'
'ae'
'adresu_'
'acting_'
'White_'
'Věc_'
'Vířivka_'
'Vy_'
'Vr'
'Verts_'
'VST_'
'Under_'
'The'
'Taking_'
'Tady_'
'Tab'
'TH'
'Soudní_'
'Sk'
'Sin'
'Serbia_'
'Santa_'
'San'
'ST_'
'SK_'
'Rakousko_'
'Prod'
'Posl'
'Polsku_'
'Ot'
'Open'
'Nev'
'Net'
'Neo'
'Nedo'
'NT'
'NS'
'Můj_'
'Moscow_'
'Mil'
'Mi'
'Men'
'Maintenance_'
'Lie'
'Keynes_'
'Jenže_'
'Jedná_'
'Izraelem_'
'Inc'
'ISO_'
'Hen'
'Had'
'Green_'
'Ger'
'GNOME_'
'Form'
'Evropané_'
'Ei'
'ED_'
'Dre'
'Don'
'Did_'
'Des'
'Communities_'
'Common_'
'Children_'
'Ce'
'Bor'
'Blo'
'Belarus_'
'Bank'
'Alt'
'All'
'Al_'
'83_'
'73_'
'51_'
'46'
'45'
'32'
'120_'
'/ '
''''
'''
'" '
' €_'
' ``_'
'• _'
'“ (_'
'žijí_'
'širší_'
'šil'
'šanci_'
'řez'
'Řím'
'ěš'
'ďte_'
'člen'
'činů_'
'Čern'
'Če'
'účetní_'
'úvěrů_'
'úrokových_'
'óz'
'ív'
'éry_'
'´_'
'­_'
'závazné_'
'zuje_'
'ztrát'
'ztratil'
'zodpovědnosti_'
'znatelný_'
'zkušenosti_'
'zit'
'zdůrazňuje_'
'zavádě'
'zaručen'
'zahrnovat_'
'zaci_'
'xt'
'whereby_'
'webové_'
'vědomí_'
'vývoji_'
'výp'
'vítá_'
'vt'
'vstup_'
'vsk'
'voz'
'vova'
'viděl_'
'vidím_'
'veřejný_'
'variable_'
'uvedla_'
'usi'
'unlikely_'
'unit_'
'ukazují_'
'uj'
'ug'
'udělal_'
'ua'
'těla_'
'tématu_'
'twice_'
'turistika_'
'trpí_'
'tras'
'tra_'
'totally_'
'tot'
'tory_'
'tok'
'tik'
'tické_'
'thousand_'
'temperature_'
'technika_'
'tasks_'
'tariff_'
'tant'
'sán'
'svěřen'
'sustained_'
'surveillance_'
'superb_'
'summitu_'
'subs'
'stroje_'
'streets_'
'strategií_'
'stranou_'
'sto_'
'stimulus_'
'stick'
'standardy_'
'sso'
'ssi'
'soustavy_'
'souhlasí_'
'som'
'solar_'
'smluv_'
'sit'
'settlement_'
'serving_'
'seeing_'
'seat_'
'scr'
'sample_'
'sales_'
'různými_'
'runs_'
'rta'
'rozšířen'
'rozpravy_'
'rose_'
'romantic_'
'roll'
'ro'
'ri'
'requirement_'
'renewable_'
'rela'
'rel'
'records_'
'reaction_'
'react'
'raz'
'ramen'
'ral'
'radi'
'q'
'připomínky_'
'přijímat_'
'přednost_'
'předložila_'
'předem_'
'pí'
'pur'
'prvotřídního_'
'properties_'
'propad'
'professionals_'
'prav'
'požadovat_'
'požadavek_'
'pořád_'
'pozdě_'
'povrch'
'postav'
'poskytl'
'porušení_'
'polovinu_'
'politickým_'
'policie_'
'poděkoval_'
'podmínkách_'
'pochyb'
'plynů_'
'players_'
'played_'
'pk'
'pick_'
'pevně_'
'passengers_'
'očekává_'
'označení_'
'otevřen'
'osvědčení_'
'osobně_'
'ort'
'oro'
'opera'
'olej'
'ol_'
'obs'
'obraz_'
'obor'
'obn'
'objeví_'
'nie'
'nesl'
'nen'
'nemůžeme_'
'negotiating_'
'neděl'
'napětí_'
'nacházejí_'
'mál'
'muy_'
'models_'
'mme'
'mem_'
'master_'
'léky_'
'lim'
'lia'
'legitimacy_'
'lak'
'kuj'
'kroků_'
'krokem_'
'kost'
'kopi'
'kontra'
'konkurence_'
'konce'
'komplexní_'
'kole'
'klíčových_'
'kit'
'ked_'
'jíž_'
'jin'
'jeme_'
'jednoznačně_'
'jediná_'
'jat'
'jakékoliv_'
'ite'
'interface_'
'ins_'
'innovative_'
'imagine_'
'images_'
'ik'
'ij'
'if'
'ich'
'hydro'
'hk'
'hearing_'
'ham_'
'grown_'
'gov'
'gn'
'gin'
'generace_'
'forest_'
'flow_'
'finished_'
'figur'
'extend_'
'expe'
'equity_'
'enforce'
'energetických_'
'enci'
'eli'
'electronic_'
'eld'
'ein_'
'edi'
'dí'
'duration_'
'dospěl'
'dorf_'
'doctor_'
'dní'
'diskutovat_'
'disasters_'
'dimension_'
'digital_'
'device_'
'determination_'
'destroyed_'
'dep'
'demokratů_'
'definitely_'
'dee'
'debian_'
'cycle_'
'cu'
'cre'
'cop'
'consultation_'
'conf_'
'conduct_'
'components_'
'coast_'
'cla_'
'cin'
'cie'
'chybí_'
'care'
'byť_'
'budování_'
'bridge_'
'br'
'bot'
'block_'
'attractive_'
'ator_'
'atn'
'ath'
'aren_'
'apartment_'
'answered_'
'ament'
'allies_'
'alg'
'agend'
'afford_'
'abuse_'
'abroad_'
'Zdá_'
'Zap'
'Welcome_'
'Though_'
'Sr'
'Společn'
'Sheraton_'
'SU'
'Rules_'
'Right_'
'Rh'
'Red'
'Ram'
'Pros'
'Project_'
'Portage_'
'Picard_'
'Okay_'
'OB'
'Northern_'
'Next_'
'Neměl'
'ND'
'Moje_'
'Mnoho_'
'Mik'
'Mezi'
'Market_'
'Lar'
'King_'
'Jestli_'
'Její_'
'Jack_'
'Irsko_'
'Interim_'
'Installation_'
'Inforegio_'
'Home_'
'GUE_'
'Fun'
'Foundation_'
'Florence_'
'Flo'
'Energy_'
'Ea'
'Dun'
'Department_'
'DPH_'
'Cu'
'Constitution_'
'Con'
'Cha'
'Canada_'
'Bru'
'Británii_'
'Brit'
'Bon'
'Barber_'
'Az'
'Ant'
'Anne'
'Ag'
'ALE_'
'38'
'23'
'190'
' = _'
'，_'
'“ – _'
'м'
'з'
'а'
'žeb'
'ť'
'šíření_'
'říká'
'řil'
'čisté_'
'činitel'
'čemu_'
'čel'
'č'
'Čl'
'útoky_'
'ú'
'íva'
'ét'
'zůstávají_'
'závěru_'
'záp'
'záležitostí_'
'zákony_'
'zvě'
'zveřejněn'
'zruš'
'zraniteln'
'značn'
'zm'
'zer'
'zdroj'
'začne_'
'yi'
'wood_'
'wind_'
'webových_'
'vůdce_'
'vů'
'výživ'
'vývoz_'
'výraz'
'vážn'
'vysoký_'
'vypl'
'vrace'
'veškerý'
'ves'
'vent'
'usa'
'urs'
'upřímn'
'trillion_'
'trestní'
'transmission_'
'tm'
'tlaku_'
'til_'
'textu_'
'texts_'
'teprve_'
'tel'
'surge'
'superior_'
'sun_'
'stá'
'stvím_'
'stv'
'stránce_'
'stronger_'
'stol'
'stanovena_'
'stands_'
'stag'
'speciální_'
'současný_'
'soutěž_'
'soudy_'
'socialist'
'sněmovně_'
'snažit_'
'smě'
'sin'
'sightseeing_'
'sight_'
'showing_'
'sell_'
'schopností_'
'scar'
'sam'
'rti'
'rozvíjejících_'
'rozsáhlé_'
'rozb'
'rok'
'roads_'
'rio'
'ri_'
'rh'
'revoluce_'
'rent'
'reinforce'
'rei'
'regula'
'regionálních_'
'rapporteurs_'
'radical_'
'quotas_'
'přírodní_'
'případy_'
'přání_'
'předpoklad'
'pta'
'průmyslových_'
'právech_'
'prosazování_'
'prohl'
'producing_'
'presidency_'
'pred'
'pozici_'
'použitím_'
'použiteln'
'por'
'poorest_'
'polohu_'
'podstatně_'
'podporován'
'podob'
'player_'
'pilot_'
'pečlivě_'
'personál_'
'perfectly_'
'pek'
'passenger_'
'očekávání_'
'očekávat_'
'oy'
'overlooking_'
'outl'
'ott'
'operators_'
'ole'
'odškodnění_'
'odstavci_'
'odhalil'
'odborné_'
'och'
'obtížné_'
'obsahující_'
'ně'
'návrat_'
'následujících_'
'následně_'
'náměstí_'
'náhradu_'
'notably_'
'nepřijatelné_'
'nepřed'
'nejpozději_'
'nef'
'nc'
'namísto_'
'míst'
'myself_'
'multiple_'
'mpe'
'movie_'
'mont'
'modul'
'modem_'
'mobiliz'
'ministr_'
'milionu_'
'miles_'
'mechanismus_'
'mechanisms_'
'mate'
'manželů_'
'lus'
'loved_'
'lova'
'load_'
'lních_'
'lm'
'lat'
'ktor'
'kosm'
'komunit'
'kolo'
'koli_'
'kláves'
'kin'
'ken_'
'joined_'
'jezd'
'jednoduché_'
'japonsk'
'ition_'
'investorů_'
'institut'
'ink'
'identify_'
'icí_'
'hundred_'
'hromad'
'households_'
'hn'
'hly_'
'heating_'
'haven_'
'hardly_'
'gu_'
'gne'
'gm'
'gge'
'geno'
'gains_'
'fáze_'
'fá'
'funguje_'
'fs_'
'fit_'
'fis'
'fica'
'faster_'
'falls_'
'failing_'
'faces_'
'ež'
'extension_'
'expansion_'
'etin'
'etik'
'ess'
'era'
'enti'
'enou_'
'ela'
'ekonomikách_'
'effectiveness_'
'economics_'
'důvodem_'
'důraz_'
'dvou'
'dvora_'
'druhého_'
'druh_'
'driver_'
'drink_'
'dovozní_'
'doporučuje_'
'doors_'
'dle'
'dl_'
'dl'
'disket'
'dil'
'detailed_'
'desát'
'desk'
'depending_'
'department_'
'deli'
'cům_'
'cíli_'
'cti'
'criticism_'
'creditor_'
'couple_'
'correctly_'
'considering_'
'connected_'
'compa'
'comment_'
'closer_'
'claimed_'
'chv'
'checks_'
'checked_'
'channels_'
'certainty_'
'catch_'
'cancelled_'
'bys_'
'brán'
'brain_'
'bohat'
'bli'
'biggest_'
'bezpečné_'
'belief_'
'becomes_'
'beaches_'
'barriers_'
'bag'
'ař'
'auto_'
'atur'
'ative_'
'ater'
'ata_'
'asse'
'art'
'anywhere_'
'ain'
'afraid_'
'adult_'
'accompanied_'
'Zi'
'Ze_'
'Zadruhé_'
'ZE'
'Within_'
'Will_'
'Ví'
'Vážená_'
'Venice_'
'Tě'
'Tr'
'Tohle_'
'Ti_'
'Ten'
'Table_'
'TE'
'Studies_'
'Stan'
'Sl'
'Set'
'Ser'
'Ron'
'Roman_'
'Roman'
'River_'
'RT'
'Qua'
'Polsko_'
'Pokoj_'
'Pl'
'Partnership_'
'Palestinians_'
'Open_'
'Opatření_'
'OT'
'OLAF_'
'Nem'
'Můžete_'
'My'
'Mill'
'MP'
'MO'
'MB_'
'Look_'
'Let'
'Lam'
'LO'
'Kos'
'KE'
'Judicial_'
'Jedin'
'Islam_'
'Ins'
'IF'
'Hyde_'
'Hotels_'
'Hor'
'Has'
'Go_'
'Gaze_'
'Framework_'
'Firefox_'
'Existují_'
'Et'
'Enforcement_'
'Empire_'
'EU'
'ENT_'
'Dr'
'Demo'
'Dec'
'Day_'
'Culture_'
'Cold_'
'Cast'
'Can'
'Beau'
'Barack_'
'BI'
'Available_'
'Art'
'Arab'
'Ada'
'76_'
'700_'
'63_'
'51'
'47'
'04'
') – _'
'" (_'
' »_'
' : '
'的'
'в'
'ůr'
'šti'
'ši_'
'řit_'
'řet'
'ňoval'
'ějšího_'
'částečně_'
'článkem_'
'čka_'
'Čínou_'
'úřady_'
'útoku_'
'úct'
'ø'
'ím'
'ícím_'
'ê'
'ář'
'átk'
'zích_'
'závažné_'
'záruky_'
'zákaz_'
'zy'
'zvýší_'
'zoufal'
'znalostí_'
'zlat'
'zel'
'zbytečn'
'zbytek_'
'zaš'
'začlenění_'
'zapomínat_'
'zajišťuje_'
'yr'
'ye'
'wn_'
'weather_'
'wars_'
'wards_'
'všude_'
'vš'
'věřit_'
'výrob'
'výhradně_'
'vzdálen'
'vytvoří_'
'vysl'
'vyko'
'vyhlídky_'
'volič'
'vládních_'
'vlak'
'vit'
'visiting_'
'veřejnost_'
'venkova_'
'variant'
'uvedeny_'
'uss'
'uspě'
'uri'
'ura_'
'unp'
'uniform'
'uncertainty_'
'umístěn'
'uli'
'udržitelného_'
'tán'
'tábor'
'trvale_'
'trval'
'trestných_'
'treat_'
'tos'
'ton'
'tlačítko_'
'tky_'
'tick'
'ters_'
'teplot'
'telné_'
'taxation_'
'systémem_'
'světových_'
'sví'
'svobodné_'
'survival_'
'surplus_'
'suggests_'
'suffer_'
'sub'
'stunning_'
'stu'
'sted_'
'stabilní_'
'stabiliz'
'spravedlnost_'
'spotřeby_'
'spory_'
'somewhat_'
'solid_'
'směru_'
'skryt'
'silnější_'
'selhání_'
'sed'
'scene'
'sca'
'sankcí_'
'sab'
'rychleji_'
'rybář'
'ruling_'
'rre'
'rozšířit_'
'rozpočtový_'
'rovn'
'roc'
'rn_'
'rl'
'rk_'
'rizikov'
'rie'
'reálné_'
'restauraci_'
'reno'
'remind_'
'relief_'
'relativně_'
'refurbished_'
'refu'
'reform'
'rece'
'rat_'
'rail_'
'race'
'quantity_'
'příjmu_'
'přistoupení_'
'připojen'
'přijde_'
'přijat_'
'předmětem_'
'putting_'
'pun'
'prvních_'
'promotion_'
'profits_'
'producent'
'proc'
'prioritou_'
'preceden'
'pras'
'poč'
'považuji_'
'potenciálu_'
'potenciální_'
'posílil'
'postaven'
'pora'
'poplatek_'
'politikou_'
'poklesu_'
'podv'
'podobně_'
'podobn'
'pobyt_'
'pob'
'po'
'piece_'
'pc'
'patient_'
'pass'
'parlamentem_'
'par'
'panel'
'pala'
'ownership_'
'ovlivn'
'ourselves_'
'oto'
'ote'
'ota'
'ostrov'
'orgánům_'
'oku'
'okraj'
'okr'
'oe'
'odstranit_'
'odpovídá_'
'odil'
'ochrana_'
'ocen'
'obyvatelstva_'
'obnovitelných_'
'object_'
'něl'
'náv'
'náhle_'
'nova'
'notes_'
'nos'
'northern_'
'noc'
'nil_'
'neznám'
'neznamená_'
'neus'
'nepochybně_'
'nejdůležitější_'
'nechat_'
'nea'
'nač'
'napříč_'
'nano'
'místnosti_'
'místech_'
'mzd'
'myslí_'
'moc'
'mluví'
'mladé_'
'mk'
'mix_'
'mistake_'
'minibar_'
'meth'
'mechanismy_'
'mail'
'lí_'
'lots_'
'logy_'
'lla_'
'lk'
'letos_'
'ler'
'ld_'
'lab'
'kus'
'ktu'
'kterými_'
'konečn'
'komisi_'
'kole_'
'jádro_'
'jádra_'
'justify_'
'jiném_'
'jel'
'ivi'
'isti'
'inu'
'intensive_'
'inf'
'indick'
'incomp'
'impressive_'
'import'
'ila'
'ight_'
'ien'
'ida'
'ically_'
'humans_'
'hrozb'
'hotelov'
'holidays_'
'hodn'
'heim_'
'hee'
'handling_'
'gue'
'gru'
'gion'
'generate_'
'gender_'
'funkcí_'
'formula'
'flo'
'fe_'
'facilitate_'
'extended_'
'expenses_'
'existenci_'
'exi'
'exceed'
'exa'
'eti'
'estate_'
'erv'
'erov'
'enta'
'eni_'
'endorse'
'emission_'
'eliminate_'
'ekonomických_'
'eg'
'eck'
'dělá_'
'děl_'
'dává_'
'dvůr_'
'drá'
'dopadů_'
'dodavatel'
'dn'
'dlouhé_'
'dk'
'discre'
'detail_'
'det'
'dependence_'
'delivery_'
'defendant_'
'declared_'
'daň_'
'cykl'
'credibility_'
'count_'
'cou'
'corr'
'coll'
'civilní_'
'chybn'
'chudobě_'
'cht'
'cher'
'chen'
'chemical_'
'cestující_'
'ced_'
'cat'
'capitalism_'
'capita_'
'běžné_'
'běh'
'bs_'
'bratr'
'beside_'
'believed_'
'bed'
'bach_'
'ačkoli_'
'aviation_'
'aver'
'automatic_'
'autobus'
'audit_'
'attitude_'
'ato'
'ata'
'assess_'
'aplikací_'
'ann'
'ane_'
'aktiva_'
'akci_'
'ah'
'aging_'
'ach_'
'acen'
'], _'
'Vys'
'Voyager_'
'Vir'
'Tuto_'
'Ts'
'Transport_'
'Tele'
'TNG_'
'TA_'
'Syn'
'Socialist_'
'Slov'
'Sel'
'Sant'
'Rule_'
'Prosím_'
'Prince'
'Praha_'
'Portugalsko_'
'Popular_'
'Pol'
'Pan_'
'Palm'
'Palestine_'
'PC'
'Ode'
'Ně'
'Nei'
'Nas'
'Mini'
'Mel'
'Management_'
'MS_'
'Lea'
'LD'
'Kla'
'Kha'
'Kas'
'Karl'
'Kam'
'Jon'
'Jinými_'
'Jin'
'Jedním_'
'Ital'
'IE'
'Globální_'
'GM'
'G20_'
'Francisco_'
'Fin'
'FR'
'FE'
'Evropskému_'
'Estonia_'
'Egypt'
'ET'
'ER_'
'Director_'
'Denmark_'
'Cílem_'
'Cyprus_'
'Cre'
'Comp'
'Climate_'
'Chu'
'Charter_'
'Cer'
'Black_'
'Bill_'
'Bet'
'Ačkoliv_'
'As'
'Ann'
'Američané_'
'Agr'
'Act'
'Abb'
'AT'
'800_'
'71_'
'63'
'61'
'600_'
'58'
'44'
'43'
'.” _'
');_'
'( _'
' !_'
'…'
'ْ_'
'к'
'žádostí_'
'žk'
'štěn'
'šetření_'
'říd'
'řin'
'řešením_'
'ěj'
'čí'
'čtyř'
'čist'
'ívá'
'ék'
'áně'
'É'
'zám'
'zákonn'
'zre'
'známky_'
'znamen'
'znalosti_'
'změněn'
'zli'
'zjištěn'
'zem'
'zdálo_'
'zdrojem_'
'zavázal'
'zaměřit_'
'zakr'
'yst'
'ym'
'yho_'
'wonder_'
'web'
'watching_'
'věřím_'
'většiny_'
'vědeck'
'výsledku_'
'výsled'
'výrobce_'
'výjimk'
'vých_'
'výběru_'
'ví'
'vzájemn'
'vze'
'vysvětlit_'
'vysvětl'
'vypr'
'volební_'
'vodu_'
'vnitřního_'
'vlastnosti_'
'vita'
'vidí_'
'victory_'
'victim_'
'veden'
'var_'
'valuable_'
'vala_'
'vac'
'uši'
'učitel'
'uznáva'
'uzavření_'
'uvedeno_'
'uto'
'uskutečnění_'
'určitý_'
'určena_'
'uplatnění_'
'unsu'
'universities_'
'une'
'uko'
'uhlí_'
'uct'
'ually_'
'tut'
'troj'
'trest'
'tres'
'tree_'
'trea'
'transportation_'
'tranquil'
'tourism_'
'thro'
'tepl'
'tender_'
'tebe_'
'tat'
'tackle_'
'synt'
'swa'
'survey_'
'surprised_'
'stylu_'
'stupně_'
'studied_'
'stručn'
'strukturálních_'
'store_'
'stocks_'
'ste_'
'stavební_'
'stati'
'spá'
'sophisticated_'
'snižuje_'
'smu_'
'slov_'
'slab'
'skončil'
'sko_'
'skleníkových_'
'ska_'
'shromáždění_'
'shod'
'serves_'
'senát'
'sche'
'rozpočt'
'rozměr'
'rous_'
'root_'
'riziku_'
'resulted_'
'respekt'
'respected_'
'residential_'
'reproduk'
'repa'
'rent_'
'regionech_'
'recognized_'
'rare_'
'rakovin'
'q_'
'přírod'
'přip'
'přesvědčeni_'
'přesta'
'představitel'
'pát'
'punish'
'pub'
'provádět_'
'propu'
'projev'
'prof'
'pramen'
'pracovníky_'
'pracovního_'
'počítač_'
'postižen'
'postavit_'
'poskytnuta_'
'pole'
'pojist'
'podporují_'
'podporou_'
'poc'
'ple_'
'pipe'
'pha'
'perform_'
'parent_'
'paral'
'pacient'
'oví_'
'oucí_'
'otec_'
'ostatním_'
'ordered_'
'opinions_'
'oldest_'
'ohrožení_'
'ohled'
'ohl'
'officer_'
'of'
'oddělen'
'odd'
'oběti_'
'obsažen'
'obsahovat_'
'obsa'
'obra'
'obnov'
'níky_'
'níci_'
'násob'
'nulov'
'nte_'
'nimiž_'
'nezm'
'ney_'
'nevid'
'neuv'
'neroz'
'nen_'
'nelegální'
'nebezpečné_'
'nds_'
'nal'
'nako'
'naj'
'město_'
'mý'
'máš_'
'mzdy_'
'mouth_'
'mountains_'
'modelu_'
'minulý_'
'mimořádn'
'mimo'
'mid'
'merc'
'match_'
'marks_'
'manufacturing_'
'log_'
'lize_'
'listin'
'liquidity_'
'link'
'lin_'
'limit'
'lets_'
'legally_'
'launched_'
'lar'
'kému_'
'kyně_'
'kv'
'kultury_'
'kultur'
'kra'
'konkurenceschopnost_'
'konečném_'
'kom'
'kolegy_'
'klá'
'kers_'
'kdysi_'
'kartu_'
'kapacit_'
'kamen'
'jednolůžkový_'
'jar'
'iště_'
'iš'
'iri'
'introduce_'
'iniciativu_'
'index'
'imo'
'ident'
'ics_'
'hyper'
'humanity_'
'hte'
'ht_'
'hrozí_'
'hrozbu_'
'hran'
'hotelů_'
'hotel'
'hole_'
'hof_'
'hluboce_'
'hat'
'hab'
'gol'
'gate_'
'fou'
'firm'
'fie'
'fertili'
'feet_'
'farm'
'extra'
'ext'
'exceed_'
'examination_'
'eto'
'este'
'eo'
'enu'
'entity_'
'engine_'
'energetiky_'
'ende'
'ejme_'
'ega'
'ební_'
'ear'
'důvěry_'
'důchodu_'
'down'
'dou'
'dotaz'
'dotace_'
'dostatečné_'
'dopravní_'
'doktor'
'dohromady_'
'documentation_'
'dobrovoln'
'doba_'
'dla_'
'distribuce_'
'diskriminace_'
'dishes_'
'dig'
'desire_'
'desetiletích_'
'deseti'
'depo'
'define_'
'daňov'
'dating_'
'dala_'
'credible_'
'cování_'
'covers_'
'covering_'
'corresponding_'
'coordinated_'
'contained_'
'cons'
'confirm_'
'conclude_'
'complicated_'
'color_'
'club_'
'chyby_'
'chudých_'
'chr'
'chorob'
'chlap'
'chart'
'char'
'chair_'
'castle_'
'bytost'
'bohatých_'
'bl'
'bill_'
'bere_'
'baro'
'balíčků_'
'ball'
'aň'
'azyl_'
'au'
'attend'
'atr'
'ates_'
'atel'
'ast_'
'ars_'
'any'
'antivirus_'
'answers_'
'alternativní_'
'all'
'alergiky_'
'ake'
'akcií_'
'ain_'
'agr'
'affects_'
'advertising_'
'adopting_'
'actors_'
'acceptable_'
'absorb'
'absolute_'
'Zimbabwe_'
'Zejména_'
'Which_'
'Whether_'
'WI'
'Vě'
'View_'
'Up_'
'Tea'
'Switzerland_'
'Sti'
'Spi'
'Sim'
'Shops_'
'Sho'
'Sc'
'SK'
'SA_'
'Rozprava_'
'Rot'
'Rol'
'Pěší_'
'Programme_'
'Portuguese_'
'Pon'
'Pil'
'Pic'
'Person'
'PI'
'Ov'
'Outdoor_'
'Organization_'
'Náš_'
'Název_'
'Nov'
'Nikdy_'
'Nevertheless_'
'Naopak_'
'Muslims_'
'Mos'
'Milan_'
'McC'
'Mala'
'ME_'
'License_'
'Leg'
'Lau'
'Lang'
'Kur'
'Kra'
'Kli'
'Jane'
'Image_'
'Hlasování_'
'Gor'
'EF'
'ED'
'DNA_'
'Cli'
'Citi'
'Christian_'
'CR'
'COM_'
'CD'
'Bus'
'Arc'
'Apo'
'Apartamentos_'
'Alp'
'Airlines_'
'AI'
'AG'
'="_'
':'
'61_'
'52'
'48'
'34'
'191'
'142_'
'-- _'
'+ _'
'*._'
' :_'
' - '
' * _'
'Žid'
'štít'
'špatné_'
'šné_'
'Ši'
'řekn'
'Řecku_'
'ňk'
'ěním_'
'ěk'
'čtyř_'
'čerpa'
'ýt_'
'účinně_'
'úprav'
'úmyslu_'
'úmrtí_'
'újm'
'ít'
'ís'
'éri'
'ém'
'ão_'
'áni'
'álo'
'áln'
'áhl'
'zřetelně_'
'zápas'
'zvyšování_'
'zvláštního_'
'zrušen'
'zpo'
'zodpovědn'
'zaznamenal'
'zastavit_'
'zaruč'
'zan'
'zaměstnavatel'
'zahájit_'
'yd'
'worry_'
'wl'
'winter_'
'warned_'
'všeobecně_'
'všeobecn'
'věří_'
'vědecké_'
'věcech_'
'výdaj'
'vál'
'vyvolává_'
'využívají_'
'vytvořen'
'vysílání_'
'vyr'
'vyplývá_'
'vyn'
'vyjádřil_'
'vstoupil'
'vp'
'violent_'
'vici'
'vice_'
'verb'
'vedla_'
'varování_'
'vai'
'uzl'
'utrpení_'
'usti'
'uspořádání_'
'usm'
'upozornil_'
'unnecessary_'
'univerzit'
'unfortunately_'
'une_'
'undertakings_'
'umění_'
'ula'
'udělení_'
'uda'
'ubo'
'tál'
'tz'
'tvoři'
'tter'
'transform'
'tori'
'tongue_'
'tisíce_'
'tisku_'
'tický'
'text'
'tered_'
'tera'
'tech_'
'taught_'
'tate'
'tac'
'tab'
'světov'
'svět'
'svoji_'
'svat'
'sv'
'subjektů_'
'státního_'
'stuff_'
'stránkách_'
'struktury_'
'spoustu_'
'spolehliv'
'sphere_'
'speakers_'
'spad'
'současných_'
'souč'
'souvisejících_'
'soused'
'souhlas_'
'solidarit'
'sold_'
'sl'
'skrze_'
'setup_'
'setkal'
'seats_'
'scen'
'saun'
'sau'
'rát_'
'rám'
'rádi_'
'rv'
'rozvinutých_'
'rozsudku_'
'ril'
'rge'
'revolution'
'released_'
'regulaci_'
'register_'
'refused_'
'reflects_'
'receiving_'
'rce'
'rap'
'rant'
'radical'
'příčin_'
'příslušným_'
'příslušných_'
'příslušnost_'
'případn'
'přišli_'
'přišel_'
'přinese_'
'přib'
'provisional_'
'prospects_'
'projevil'
'professions_'
'procháze'
'preparing_'
'prefer_'
'pravděpodobné_'
'pped_'
'pozornosti_'
'použil'
'pou'
'potíže_'
'potvrzení_'
'potentially_'
'posl'
'poruch'
'porad'
'položku_'
'polož'
'pokračování_'
'pohled'
'podává_'
'podrobn'
'podn'
'pochází_'
'poblíž_'
'plánování_'
'plnou_'
'plays_'
'platn'
'picturesque_'
'phrases_'
'peč'
'pest'
'personally_'
'performed_'
'percent_'
'patent'
'partnery_'
'pace_'
'ovk'
'ouš'
'otn'
'organis'
'orde'
'opětovné'
'oppose_'
'opo'
'onu_'
'ono'
'onemocnění_'
'omezené_'
'okolí_'
'ohrožen'
'odměn'
'ochot'
'ocel'
'obzvlášť_'
'obyvatele_'
'obt'
'nů_'
'nízký'
'náhrady_'
'ny'
'nský'
'nová'
'night'
'nevys'
'nese'
'nepov'
'nemělo_'
'nel'
'nejde_'
'nehod'
'nedosta'
'neb'
'naznačuje_'
'naturally_'
'nahl'
'nacháze'
'nabídku_'
'na'
'měst'
'mých_'
'myšlenky_'
'museli_'
'mp_'
'mozk'
'monitorování_'
'mirror_'
'minul'
'min_'
'mena'
'manager_'
'lý'
'lídři_'
'lon'
'lně_'
'lla'
'lise_'
'lid'
'lež'
'lesson_'
'lep'
'len_'
'law'
'landscape_'
'kční_'
'kán'
'kvalitu_'
'kva'
'kurt_'
'krátkodobé_'
'krmiv'
'kritérií_'
'kontrolní_'
'konflikt_'
'kompromisu_'
'kni'
'kes_'
'kapitán_'
'kapacity_'
'kanál'
'judgements_'
'jih'
'jev'
'jednacího_'
'jediné_'
'jaká_'
'izo'
'ive'
'ito'
'investovat_'
'invasion_'
'interven'
'intend_'
'integra'
'informován'
'impose_'
'implications_'
'imi'
'ime_'
'ill_'
'iká'
'ier'
'idl'
'ict'
'ických_'
'ická_'
'ia'
'hou_'
'host'
'homes_'
'hodl'
'hodin'
'hlavně_'
'hlavního_'
'hlas'
'hill_'
'het_'
'hell_'
'harmonisation_'
'gym_'
'gy'
'gua'
'governmental_'
'gna'
'globalizaci_'
'glob'
'get'
'geographical_'
'gained_'
'fte'
'fourth_'
'foundations_'
'forecast'
'fire'
'financ'
'fallen_'
'faktory_'
'fai'
'exploit'
'experiences_'
'equi'
'eov'
'eného_'
'entities_'
'enemy_'
'encouraged_'
'emp'
'emotion'
'email_'
'ema'
'elektronick'
'ekonomická_'
'edit'
'ede'
'dž'
'důstojn'
'dům_'
'důležitější_'
'dřív_'
'dryer_'
'drugs_'
'dovozu_'
'dovednost'
'dosažen'
'domácnosti_'
'domu_'
'doj'
'dohled_'
'dog_'
'dobrých_'
'dluhů_'
'discovered_'
'directed_'
'dia'
'dez'
'dev'
'destroy_'
'destabiliz'
'description_'
'deploy'
'demonstrate_'
'delicious_'
'defin'
'dam'
'cus'
'currencies_'
'cts_'
'cro'
'creative_'
'cov'
'construct'
'constitutional_'
'confirmed_'
'cond'
'concentration_'
'competence_'
'communicate_'
'combating_'
'cit'
'chtít_'
'cemi_'
'caught_'
'cancer_'
'cam'
'busy_'
'bug_'
'broken_'
'britské_'
'brit'
'bral'
'bottom_'
'boj'
'blíž'
'blame_'
'bitv'
'birth_'
'bigger_'
'behavior_'
'bee'
'bedrooms_'
'bedding_'
'bb'
'band_'
'authorised_'
'authorisation_'
'attract'
'atte'
'att'
'ate'
'armed_'
'architektur'
'app'
'apart_'
'amp'
'ama_'
'allocated_'
'alliance_'
'aliance_'
'aine'
'affi'
'addressing_'
'accelerated_'
'Zobraz'
'Zak'
'Yu'
'Working_'
'Wei'
'Věřím_'
'Vor'
'Velmi_'
'VA'
'Ul'
'Ukrajin'
'Uk'
'Tv'
'Tho'
'Sá'
'Suites_'
'Stu'
'Souhlasím_'
'Should_'
'Select_'
'See'
'Secretary_'
'SMEs_'
'SL'
'RN'
'Protection_'
'Problém_'
'Petr'
'Para'
'Oddíl_'
'OS'
'Nez'
'Mol'
'Mercure_'
'Medi'
'Land'
'Kre'
'Kat'
'Informace_'
'Inf'
'Indi'
'Hostel_'
'HA'
'Gul'
'Gre'
'Golfové_'
'Frontex_'
'Frank'
'Est'
'Eng'
'Ele'
'ET_'
'EA'
'Doručování_'
'Cur'
'Conver'
'Control_'
'Compa'
'Christ_'
'Christ'
'Carl'
'Baltic_'
'BER'
'Automatic_'
'Aug'
'Atlantic_'
'Asi'
'Arr'
'And'
'Ameri'
'Air'
'Abychom_'
'AP'
'AM_'
'AM'
'?' _'
'=='
': %_'
'64'
'62'
'54_'
'1979_'
'1970_'
'192'
'18'
'*'
'#_'
' °_'
' ['
' ; _'
'κ'
'žil_'
'žalob'
'ža'
'ůl'
'špi'
'šla_'
'šest'
'řízením_'
'řízen'
'řov'
'řeší_'
'ěst'
'čtvrti_'
'čit_'
'čekat_'
'účet_'
'úmysl'
'úkolem_'
'ön'
'ór'
'íl'
'ík'
'ázal'
'ávání_'
'ám'
'áh'
'¡_'
'zást'
'zásob'
'zákonů_'
'zvláštních_'
'zvlád'
'zon'
'zol'
'zničit_'
'zneužívání_'
'zlepš'
'zit_'
'začínají_'
'začaly_'
'zat_'
'zaručit_'
'zapojení_'
'zaplatit_'
'zaměřil'
'založen'
'zada'
'zachránil'
'zabránil'
'ym_'
'yed_'
'wood'
'wha'
'webov'
'wea'
'warp_'
'ward'
'wa'
'včas_'
'významu_'
'významnou_'
'výrobě_'
'vým'
'výhledem_'
'výborn'
'víz'
'vána_'
'válečn'
'vztazích_'
'vysokého_'
'vysoká_'
'vyro'
'vykona'
'vycháze'
'vrátil_'
'vost_'
'voln'
'volbu_'
'vod_'
'vlivu_'
'viděli_'
'vic'
'vc'
'vali_'
'užitečn'
'ušk'
'učiněn'
'učinil'
'usly_'
'určených_'
'určené_'
'uprostřed_'
'unre'
'unl'
'undoubtedly_'
'understood_'
'ulici_'
'ukončena_'
'udržitelný_'
'udi'
'těmi_'
'tt'
'tržních_'
'translator_'
'tkví_'
'tk'
'tivní_'
'threats_'
'terrorists_'
'teploty_'
'tek_'
'tax'
'tape_'
'sá'
'sz'
'sympath'
'svědk'
'svě'
'supporters_'
'stylov'
'stupn'
'stranami_'
'stov'
'stk'
'stažení_'
'statut'
'stanice_'
'správc'
'spousta_'
'spouse_'
'spot_'
'splněny_'
'spin'
'současnou_'
'soukromí_'
'soudci_'
'sním'
'snažil_'
'směs'
'složky_'
'složení_'
'slove'
'skl'
'skin_'
'silniční_'
'servi'
'sentiment'
'selling_'
'sation_'
'samospráv'
'růstem_'
'rý'
'rozsah_'
'rozporu_'
'rozdělen'
'rovno'
'route_'
'ropo'
'rog'
'risk'
'ris'
'rin'
'rim'
'ria'
'revision_'
'ress'
'respectively_'
'renewed_'
'remo'
'remarkable_'
'rem'
'religion_'
'rej'
'regimes_'
'reformá'
'rear'
'rci'
'rc'
'ratio_'
'rain'
'radě_'
'quantities_'
'původ'
'půl_'
'půjčky_'
'přístroje_'
'příspěvky_'
'přípravky_'
'příjemn'
'přizpůsob'
'přistěhovalců_'
'přispívá_'
'připravit_'
'připraveny_'
'připraveni_'
'připraven'
'přinesl'
'přik'
'přijít_'
'přijatých_'
'přijal_'
'přesun'
'předsedovi_'
'předp'
'přechod_'
'písemn'
'právními_'
'proximity_'
'proved_'
'protokol_'
'protest_'
'protecting_'
'promluvit_'
'prokázal'
'prodeje_'
'priorit_'
'print_'
'prevention_'
'prejudice_'
'pping_'
'ppe'
'požár'
'pořád'
'pozoruhodn'
'pozice_'
'poskytují_'
'porovnání_'
'populations_'
'ponaučení_'
'poho'
'podíval_'
'podstatn'
'podpis'
'podan'
'plenary_'
'platform_'
'plain_'
'permission_'
'pel'
'pea'
'pas_'
'parliament_'
'parlamentní_'
'par_'
'panoramic_'
'palubě_'
'paliv_'
'ow'
'ováni_'
'ovo'
'overcome_'
'ouz'
'oss'
'orders_'
'ord'
'opustit_'
'opposed_'
'opl'
'opatrn'
'opat'
'opakuj'
'olu'
'okamžik_'
'ogra'
'odůvodnění_'
'odpovědět_'
'odkaz_'
'odhal'
'ocit'
'obět'
'obvod'
'obrázk'
'obav'
'německé_'
'někter'
'nějaká_'
'nému_'
'nástrojem_'
'nám'
'náležit'
'náklad'
'náboženství_'
'nst'
'novém_'
'nl'
'nka_'
'nin'
'nimž_'
'nictví_'
'nick'
'nf'
'nevě'
'nestabilit'
'nepří'
'neje'
'nejb'
'neg'
'nebezpečn'
'naším_'
'našimi_'
'nalezen'
'nai'
'nadcházejících_'
'mů'
'měřítku_'
'městech_'
'měn'
'mírn'
'muze'
'motor_'
'montáž'
'modr'
'mod'
'mně_'
'ministerstv'
'mezd_'
'malaria_'
'léčiv'
'lé_'
'lé'
'lán'
'lub'
'lovn'
'losing_'
'log'
'llen'
'liti'
'literary_'
'listen_'
'lig'
'libr'
'legislativ'
'lač'
'laying_'
'lawyer_'
'land'
'lam'
'kód'
'kém_'
'kvalitní_'
'kul'
'krv'
'kritik'
'krat'
'kousek_'
'kou'
'kons'
'komisaře_'
'kok'
'klo'
'keys_'
'kdykoliv_'
'kce_'
'kat_'
'kancelář'
'jes'
'jedn'
'jed'
'jc'
'jasná_'
'iž'
'ize'
'ivní_'
'itý'
'ional_'
'interior_'
'insti'
'ino_'
'informal_'
'inc'
'impa'
'ill'
'ile_'
'idla_'
'hust'
'hovoří_'
'hospodářským_'
'holo'
'holi'
'holds_'
'hmot'
'hlu'
'hladiny_'
'here'
'hem_'
'hed_'
'haj'
'gula'
'greatly_'
'gradually_'
'globaliz'
'gets_'
'fs'
'fov'
'format_'
'flying_'
'fle'
'filtr'
'filled_'
'fication_'
'favour'
'favor_'
'fat'
'fakt'
'extract'
'expertise_'
'expan'
'exit_'
'existující'
'execution_'
'examined_'
'ex'
'ew'
'ete'
'estimates_'
'esc'
'entre'
'entertainment_'
'eno'
'enk'
'engage_'
'empty_'
'employ'
'elle'
'earth_'
'dět'
'dělal'
'držet_'
'držel'
'druhém_'
'dramatically_'
'dramatic_'
'dovolte_'
'dosáhly_'
'dos_'
'dos'
'doručen'
'dokumentů_'
'dná'
'disputes_'
'disciplin'
'diminish'
'dh'
'detek'
'desp'
'dera'
'deposit_'
'dependent_'
'definován'
'deeply_'
'deeper_'
'deco'
'creates_'
'cr_'
'conveniently_'
'contributed_'
'continental_'
'considers_'
'compatible_'
'comm'
'clinical_'
'class'
'chn'
'chen_'
'centuries_'
'centr'
'cenné_'
'cells_'
'cad'
'bývalý_'
'bí'
'bull'
'bránit_'
'browser_'
'brother_'
'boot'
'bolest_'
'boat_'
'bil'
'bezd'
'best'
'beauty_'
'bab'
'ačn'
'ač'
'ax'
'ava_'
'audit'
'ativ'
'aspir'
'aspekty_'
'ase'
'arrive_'
'arin'
'argued_'
'archive'
'appointment_'
'age'
'afternoon_'
'after'
'advice_'
'advantages_'
'adn'
'administrativa_'
'adapta'
'ada_'
'act'
'acr'
'acce'
'abo'
'Vzd'
'Under'
'Uděl'
'Thanks_'
'Tenisový_'
'Takový_'
'Take_'
'Taj'
'Světová_'
'Standard_'
'Sit'
'Single_'
'Similarly_'
'Sie'
'Scotland_'
'Rou'
'Reserve_'
'Rep'
'Regula'
'RT_'
'Quality_'
'Představ'
'PŘÍLOHA_'
'Prop'
'Poč'
'Polic'
'Pin'
'Paříž'
'Oxford_'
'Obs'
'Německ'
'Několik_'
'Nepo'
'Nemá'
'Nemoh'
'Neb'
'Nakonec_'
'Mí'
'Mobil'
'Mimo'
'Mid'
'Micha'
'Metro_'
'Met'
'Malta_'
'Maastricht_'
'MM'
'MD'
'Luc'
'Love'
'Lisboa_'
'Lid'
'Las_'
'Lan'
'Krytý_'
'Korean_'
'KY_'
'Jistě_'
'Jem_'
'James_'
'Institute_'
'Indii_'
'Inde'
'Hungary_'
'Hug'
'Holiday_'
'Hey_'
'Her_'
'Hand'
'Hall_'
'Gui'
'Gro'
'Forum_'
'Fle'
'Firstly_'
'Excel'
'Equipment_'
'Emi'
'Dob'
'District_'
'DC_'
'Cy'
'Course_'
'Clinton_'
'Charles_'
'CL'
'CH'
'Bohužel_'
'Blízkém_'
'Bay'
'Barr'
'Bankruptcy_'
'BL'
'Assembly_'
'Arabic_'
'Applause_'
'Ana'
'Alexander_'
'Agriculture_'
'Af'
'19th_'
'. "_'
'*_'
'))_'
'”'
'— _'
'σ'
'žel'
'žaloby_'
'ůsta'
'šéf'
'šá'
'šok'
'Švýcarsk'
'řed'
'řad'
'ěný'
'ěm_'
'ějí_'
'ěd'
'Ě'
'číta'
'činit_'
'červen'
'červ'
'časopis'
'Česk'
'ýs'
'ústavní_'
'úr'
'údržb'
'íků_'
'íky_'
'íku_'
'íjí_'
'íje'
'és_'
'å'
'á'
'získá'
'závod'
'závazn'
'záloh'
'zvýšila_'
'zvolit_'
'zur'
'zpětn'
'zování_'
'zně'
'značk'
'změnám_'
'zelené_'
'zdanění_'
'zasa'
'založena_'
'zakl'
'zak'
'zajišťovací_'
'zachránit_'
'zach'
'ylu'
'yla'
'yl_'
'ychl'
'worth'
'wise_'
'wave_'
'většího_'
'věděl_'
'vývozní_'
'výt'
'výnosy_'
'výhrad'
'vítěz'
'vzácn'
'vyroben'
'vyhrazen'
'vydat_'
'vydal_'
'vu'
'volební'
'voices_'
'vla'
'vič'
'visa_'
'viewed_'
'viable_'
'vesnic'
'vesmíru_'
'vers_'
'velikosti_'
'vele'
'vedlo_'
'uvidí'
'ure'
'urat'
'upper_'
'upgraded_'
'unions_'
'ukr'
'tů_'
'těle'
'týdny_'
'tura_'
'tube_'
'tti'
'trvat_'
'trees_'
'transform_'
'tní'
'title_'
'tion'
'tin_'
'terrible_'
'terorismus_'
'terminal_'
'temp'
'telefon'
'tee'
'tav'
'tank'
'talent_'
'tah'
'tactic'
'syno'
'sul'
'suit_'
'sui'
'suc'
'sub_'
'střed'
'státem_'
'stáhnout_'
'struktur'
'stri'
'straš'
'strategick'
'stopy_'
'stav'
'stan'
'srovnání_'
'spravedlivé_'
'spotřeb'
'společn'
'splnění_'
'split_'
'soutěže_'
'souhlasím_'
'sociálním_'
'snaž'
'sn'
'smyslupln'
'smutn'
'sixt'
'sive_'
'signál_'
'sian_'
'showed_'
'shi'
'sheets_'
'sharp_'
'sexuální_'
'sentence_'
'senior_'
'sedm'
'secret_'
'secret'
'sci'
'schedule_'
'satisfy_'
'satisfied_'
'sand'
'rui'
'rtu'
'rozšířil'
'rozpravu_'
'rovnováhy_'
'ron'
'rodič'
'rodin'
'rid'
'restaura'
'ress_'
'reso'
'rer'
'reporting_'
'rely_'
'relationships_'
'recording_'
'recept'
'realizaci_'
'realiz'
'ray_'
'rar'
'ranging_'
'ram'
'rak'
'quer'
'příštím_'
'příslušn'
'přírodních_'
'případné_'
'přínos_'
'přistěhovalectví_'
'připomenout_'
'přinést_'
'přijateln'
'přesvědčena_'
'přesvědčen'
'překvapen'
'představoval'
'předložení_'
'pák'
'pust'
'pursued_'
'publish'
'průměru_'
'průměrný_'
'průměrn'
'pryč_'
'prst'
'promised_'
'program'
'profession_'
'productive_'
'prod'
'probíha'
'prob'
'prezidentem_'
'previously_'
'pravidelně_'
'pracuje_'
'pracovním_'
'pracovník'
'požaduje_'
'pož'
'použitelné_'
'pouhé_'
'potvrdil'
'postupovat_'
'porte'
'poptávku_'
'poměr_'
'poměr'
'poi'
'pohrom'
'pohr'
'podán'
'podnik_'
'plo'
'plenty_'
'pick'
'phone'
'phi'
'pas'
'partitions_'
'oře'
'očekával'
'oč'
'overt'
'ostr'
'osob'
'oru_'
'org'
'operate_'
'open'
'ong_'
'onal_'
'okolní'
'okn'
'oke'
'og_'
'ody_'
'odsouzen'
'odráží_'
'odlišné_'
'odkud_'
'oceán'
'obtížn'
'observed_'
'obrat'
'obrann'
'obnoven'
'obil'
'něj'
'něho_'
'následoval'
'nákladní_'
'nákladn'
'nos_'
'norm'
'neč'
'neú'
'nezávislosti_'
'nezávisl'
'neuvěřiteln'
'nepom'
'nepl'
'nemohla_'
'nemocn'
'nemo'
'největším_'
'největších_'
'nejst'
'nejspíš_'
'nedostatky_'
'nedokáže_'
'nechce_'
'našim_'
'nato'
'nationals_'
'naruš'
'nabízen'
'mód'
'module_'
'model'
'mistr'
'minut'
'ministrů_'
'micro'
'mic'
'menšiny_'
'marin'
'malá_'
'mak'
'magnificent_'
'mad'
'macro'
'líb'
'lád'
'love'
'loni_'
'logick'
'logical_'
'liší_'
'liš'
'lil'
'lev'
'lessons_'
'lera'
'length_'
'legislativní_'
'lawyers_'
'laugh'
'kři'
'kře'
'krátce_'
'kri'
'kouř'
'kot'
'kontrole_'
'konkurenci_'
'konc'
'konal'
'kome'
'klon'
'klimatických_'
'klimatické_'
'kilometrů_'
'kids_'
'kid'
'každoročně_'
'kaz'
'kapitál_'
'kapitol'
'jízd'
'jícím_'
'já'
'justified_'
'jpg_'
'jiho'
'jednostrann'
'jedinečn'
'jasn'
'ité_'
'itou_'
'ists_'
'ish'
'interpret'
'inter_'
'inovací_'
'ini'
'ingly_'
'informovat_'
'industrializ'
'individuální_'
'ils_'
'ignor'
'hurt_'
'hum'
'hry_'
'hostil'
'hil'
'hie'
'herself_'
'hers_'
'helps_'
'heads_'
'heading_'
'hav'
'haus'
'happening_'
'gly'
'gle_'
'gla'
'gent'
'gather'
'gate'
'fyzick'
'frequently_'
'francouzské_'
'francouzsk'
'formát'
'fic'
'fel'
'fee_'
'federal_'
'fat_'
'farm_'
'far'
'eň'
'exploring_'
'explo'
'exclusively_'
'excess_'
'examine_'
'evropská_'
'eur'
'eu_'
'eter'
'eten'
'esl'
'erg_'
'ept'
'entries_'
'entirety_'
'enhance_'
'emphasize'
'emisemi_'
'elné_'
'elevator_'
'ekonomický_'
'efektivit'
'ede_'
'eal'
'důležitým_'
'dře'
'dur'
'drug_'
'drew_'
'dre'
'doz'
'dostali_'
'dominated_'
'dolar_'
'dokážou_'
'dnech_'
'dlouhou_'
'division_'
'diversity_'
'deter'
'depart'
'denní_'
'democrat'
'dek'
'def'
'deals_'
'datem_'
'cí'
'cukr'
'converter_'
'convenience_'
'controlled_'
'constant_'
'consequence_'
'conferences_'
'conce'
'colleague_'
'coat'
'coa'
'citliv'
'cil'
'chudé_'
'chova'
'chat_'
'ceiling_'
'carrying_'
'candidates_'
'bust'
'budgets_'
'brings_'
'bouř'
'boom_'
'bin_'
'bi_'
'bere'
'bell'
'bedroom_'
'bas'
'automatick'
'auta_'
'austerity_'
'assist'
'are'
'arch'
'apart'
'anc'
'analýzy_'
'americkou_'
'amazing_'
'alive_'
'aircraft_'
'agentur_'
'aged_'
'ado_'
'adjusted_'
'aco'
'ab'
'Women_'
'Wall'
'Vždyť_'
'Věd'
'Vás_'
'Van'
'VI_'
'Using_'
'UP'
'Torre'
'Tol'
'Third_'
'Ted'
'Sunday_'
'Sud'
'Srbsk'
'Spa'
'Smlouvu_'
'Slovensk'
'Sau'
'SE_'
'Robert_'
'Remarks_'
'Rece'
'Read'
'Rat'
'Rai'
'Předběžná_'
'Potlesk_'
'Place_'
'Parlamentem_'
'Pap'
'Palestinci_'
'Opravdu_'
'Odpověď_'
'Někteří_'
'Notes_'
'Nor_'
'Nor'
'Nob'
'Nikdo_'
'Nic'
'Neza'
'News_'
'Nemůžeme_'
'NG'
'Má'
'Mun'
'Mora'
'Monte'
'Ministers_'
'Mea'
'Mart'
'Mark'
'Marc'
'Mají_'
'MT'
'Lor'
'List_'
'Lisabonská_'
'Libya_'
'Lanc'
'LL'
'Kulečníky_'
'Které_'
'Kou'
'Kap'
'Jednou_'
'Japonsku_'
'It'
'Il'
'Hotel'
'Hospodářsk'
'Hlas'
'Heathrow_'
'Have_'
'Gree'
'Gr'
'Galileo_'
'GR'
'GL'
'Ferr'
'Fal'
'Evropských_'
'Emp'
'Education_'
'Eco'
'EP_'
'EL'
'Dominion_'
'Corr'
'Cons'
'Communist_'
'Comfort_'
'Chr'
'COMMISSION_'
'CF'
'By'
'Blair_'
'Big_'
'Belgi'
'Bat'
'Automatické_'
'Association_'
'Alpha_'
'Ak'
'AS_'
'A6_'
'55'
'53_'
'49'
'180_'
'103_'
'.“ _'
' &_'
' %, _'
'牌'
'。_'
'…_'
'“)'
'у'
'η'
'žn'
'životů_'
'ži_'
'žadatel'
'ště_'
'špatný'
'škál'
'široké_'
'Ša'
'řík'
'ěni'
'ď_'
'čísle'
'čku_'
'čil'
'čet_'
'čast'
'ča'
'Čínsk'
'úzk'
'út'
'úspor_'
'úrok'
'úlo'
'ód'
'ñ'
'ával'
'áti'
'Ús'
'Úmluv'
'ÁN'
'}}'
'získali_'
'získal_'
'zásah'
'zápisu_'
'zákon'
'zum'
'způsobuje_'
'způsobit_'
'způsob'
'zpracovávání_'
'zpoplatněn_'
'znovu'
'zmínil_'
'zkušeností_'
'zie'
'země'
'zaž'
'zařazen'
'začátek_'
'zane'
'zaměřuje_'
'zaměstnance_'
'založený'
'zajištěn'
'zabývá_'
'zabezpeč'
'yn_'
'wishes_'
'western_'
'welcomes_'
'weapon_'
'wages_'
'vůle_'
'všeobecné_'
'výživné_'
'výzvu_'
'významn'
'výzkum'
'výrobců_'
'výroba_'
'výkaz'
'výhodn'
'výhod'
'výhled_'
'vého_'
'vé'
'ván'
'vzp'
'vzor'
'vzhůru_'
'vz'
'vyř'
'vyvr'
'vytvářejí_'
'vysokých_'
'vyma'
'vyl'
'vyberte_'
'vstoupí_'
'voluntary_'
'volba_'
'volatil'
'vola'
'vodě_'
'vlastnost'
'vit_'
'visited_'
'virtual_'
'vest'
'vedly_'
'vašich_'
'vas'
'valu'
'učinila_'
'uze'
'uvoln'
'uve'
'ute'
'uta'
'usilovat_'
'urychlen'
'upozornit_'
'uplatn'
'updated_'
'univerzity_'
'units_'
'ular_'
'ukázal_'
'uit'
'ude'
'uce'
'ubl'
'třetin'
'těžký'
'tým'
'tvorbu_'
'turning_'
'troops_'
'trestn'
'transplant'
'transatlantic_'
'traditions_'
'tourists_'
'topics_'
'too'
'toc'
'tlak'
'tiny_'
'theo'
'tep'
'temn'
'technických_'
'teachers_'
'tb'
'targeted_'
'tanc'
'sť'
'síla_'
'světového_'
'svobod'
'summons_'
'summary_'
'suggestions_'
'stál_'
'strengthened_'
'strav'
'straight_'
'stories_'
'stock'
'stil'
'stick_'
'stic_'
'stic'
'stejnou_'
'stará_'
'stanoveno_'
'stand'
'stance_'
'stages_'
'spu'
'správu_'
'společensk'
'specifi'
'special'
'sovereignty_'
'současného_'
'soul_'
'souhlasit_'
'soudním_'
'soft_'
'směrnicí_'
'smluvní_'
'ska'
'sk_'
'silou_'
'siln'
'silence_'
'shodn'
'sep'
'semi'
'selecti'
'segment'
'sdílení_'
'sd'
'scrutiny_'
'sc'
'samo'
'rámcové'
'rál'
'rub'
'rozšiřování_'
'rozhovory_'
'rozhodne_'
'rostlin_'
'roo'
'ron_'
'rodin_'
'rna'
'rma'
'riz'
'ride_'
'režimy_'
'retire'
'retain_'
'ret'
'restrukturalizace_'
'restored_'
'resolved_'
'resign'
'reserves_'
'reputation_'
'repeatedly_'
'remembered_'
'reliable_'
'reklam'
'rek'
'regulators_'
'regardless_'
'refers_'
'refer'
'realizova'
'rb'
'rac'
'půl'
'příčin'
'příspěvků_'
'příslušného_'
'příprav'
'příp'
'přist'
'předsedkyně_'
'předložil'
'pěkn'
'písemnosti_'
'pto'
'ptic'
'pte'
'pt_'
'psi'
'průzkum'
'právně_'
'prosazovat_'
'pron'
'prodej_'
'problémům_'
'prison_'
'principy_'
'preventing_'
'pressures_'
'prefer'
'pragmatick'
'pracuj'
'požádal_'
'poš'
'pozorovatel'
'posílen'
'possibilities_'
'poněkud_'
'poměrně_'
'pomáhat_'
'pokut'
'pokus'
'pokračuje_'
'pohyb_'
'poh'
'poe'
'podporuji_'
'podporovan'
'podmíněn'
'pochybnosti_'
'pobíd'
'pno'
'plán'
'play'
'pher'
'permitted_'
'pensions_'
'pec'
'parental_'
'palestinský'
'pak'
'pag'
'padl'
'packe'
'pachatel'
'pac'
'označen'
'ox'
'ovsk'
'otevření_'
'ors'
'orienta'
'organizaci_'
'opatřením_'
'opakovaně_'
'olo'
'ola_'
'ohn'
'ogen'
'offs'
'odpovědí_'
'odmíta'
'odm'
'odle'
'odeb'
'odb'
'ocitl'
'occasion_'
'oběma_'
'obrovský_'
'obrazovk'
'obranu_'
'obnovu_'
'obnovit_'
'objevil_'
'objects_'
'objecti'
'obecného_'
'obchodním_'
'obchodník'
'některá_'
'nějak_'
'náva'
'následky_'
'nás'
'nw'
'nutím_'
'nutně_'
'num'
'nue'
'nse'
'noti'
'noi'
'nia'
'nespl'
'nesp'
'nerovnost_'
'nep'
'nemusel'
'nemluv'
'neli'
'nek_'
'nechal_'
'nci'
'naznačují_'
'navrhla_'
'nasta'
'narrow_'
'napad'
'nahoru_'
'nah'
'naději_'
'nabíze'
'mír'
'morální_'
'moderní'
'mnoh'
'mm'
'mez'
'metra_'
'metal'
'medicines_'
'meal_'
'mba'
'mato'
'materiálů_'
'mas_'
'marked_'
'manufacturer_'
'manu'
'mala'
'lt_'
'loud'
'lop'
'local'
'lob'
'ling'
'liberální_'
'letišt'
'letadl'
'lasting_'
'lar_'
'lag'
'lac'
'label_'
'křesťansk'
'kurzu_'
'krátkodob'
'krátk'
'krásn'
'kraj'
'koval'
'koupi'
'koordinace_'
'konečné_'
'komunik'
'kolegů_'
'kola_'
'klepněte_'
'kk'
'každá_'
'karty_'
'kariér'
'jš'
'jímž_'
'jím_'
'jsk'
'js'
'jen'
'jednotné_'
'jazyky_'
'jakékoli_'
'iční_'
'ivé_'
'ipa'
'ip_'
'ion'
'inva'
'intra'
'intervence_'
'internationally_'
'interi'
'interc'
'intention_'
'integrity_'
'instability_'
'informovan'
'iness_'
'inequality_'
'indication_'
'imprison'
'iment'
'ient'
'ictví_'
'ich_'
'iali'
'hus'
'hraje_'
'hr_'
'hot'
'hostům_'
'hodnot'
'hnout_'
'hlás'
'hlasoval_'
'hit'
'historické_'
'historick'
'histori'
'hes_'
'hero'
'headed_'
'hea'
'hate'
'harmful_'
'hall'
'habit'
'gth'
'gs'
'grou'
'grew_'
'graf'
'gold_'
'girls_'
'gest'
'genocid'
'gener'
'fungoval'
'fundamental'
'freedoms_'
'fol'
'fly_'
'floors_'
'fiskální'
'fici'
'ff_'
'federa'
'fears_'
'fate_'
'false_'
'extremist'
'exposure_'
'evo'
'etic'
'esca'
'erst'
'erb'
'epidemi'
'engineer'
'energetickou_'
'ened_'
'ene_'
'endo'
'end'
'ements_'
'elo'
'eligible_'
'elektrické_'
'ejší_'
'ee_'
'důsledn'
'důsled'
'důležitost_'
'důkladn'
'dělají_'
'dějinách_'
'dávka_'
'dárc'
'dán'
'dvakrát_'
'dt'
'ds'
'druhým_'
'dotyčný'
'dosa'
'dopředu_'
'dolů_'
'dokončen'
'dohodnut'
'dodnes_'
'dobrého_'
'dnešních_'
'dluhov'
'dli'
'diss'
'disabled_'
'dil_'
'dge'
'destination_'
'demi'
'dem_'
'dell'
'deflation_'
'decisive_'
'decentraliz'
'dece'
'db'
'ctions_'
'cted_'
'crack'
'constantly_'
'configuration_'
'complain'
'commonly_'
'command'
'colla'
'coalition_'
'cies_'
'chud'
'choices_'
'chladn'
'chemi'
'channel_'
'celosvětové_'
'celosvětov'
'celkový_'
'cast'
'cas'
'bře'
'bread_'
'boli'
'bolesti_'
'bill'
'benz'
'believes_'
'beg'
'balíků_'
'ball_'
'bal_'
'bac'
'aš'
'ařsk'
'ačních_'
'await'
'authentic_'
'atory_'
'atom'
'assist_'
'assigned_'
'ask'
'asc'
'arm_'
'arise_'
'aní'
'anu_'
'ans'
'anou_'
'ane'
'alu'
'allocation_'
'ality_'
'alcohol_'
'alb'
'aktiv'
'aki'
'ais_'
'aff'
'adu_'
'adaptation_'
'acknowledged_'
'acceptance_'
']] '
']]'
']'
'Work'
'Will'
'Vyd'
'Vl'
'USE_'
'Turecká_'
'Tou'
'Thailand_'
'TT'
'TR'
'Swedish_'
'Stra'
'Steam_'
'Spojenými_'
'Son'
'Slo'
'Slav'
'Sir_'
'Sign'
'Shar'
'Sea'
'School_'
'Scho'
'Schl'
'SD'
'Rá'
'Rumunsko_'
'Roo'
'Road_'
'Rest'
'Republican_'
'Reg'
'Reform'
'Rap'
'Rad'
'Přid'
'Prot'
'Program'
'Premier_'
'Poté_'
'Port_'
'Pomoc'
'Philip'
'Pension_'
'Parní_'
'Over_'
'Outlook_'
'Obl'
'OU'
'OD'
'Německa_'
'Nové_'
'Never_'
'Nel'
'Nebyl'
'Můž'
'Multi'
'Mom'
'Mnozí_'
'Mn'
'Mis'
'Michel'
'Michael_'
'Meanwhile_'
'Matt'
'Map'
'MA_'
'Ly'
'List'
'Life_'
'Law_'
'Ky'
'Kodani_'
'Ken'
'Kan'
'Jurisdiction_'
'Jan'
'JE'
'Innsbruck_'
'Industrial_'
'Indoor_'
'Imp'
'IR'
'Hos'
'Hay'
'Gru'
'Gil'
'Gardens_'
'GI'
'Fundamental_'
'Following_'
'Fl'
'FT'
'FOR'
'Explorer_'
'Esp'
'Easy_'
'Earl'
'EX'
'ESF_'
'Dublin_'
'Dohoda_'
'Does_'
'Dod'
'Divorce_'
'Divi'
'Die_'
'Dia'
'Deb'
'Dav'
'DU'
'DS'
'DR'
'Cri'
'Conf'
'Cond'
'Computer_'
'Colo'
'Chile_'
'Chan'
'Cen'
'CT'
'COMP_'
'CES_'
'Bezp'
'Bene'
'BS'
'Auditors_'
'Ara'
'Answer_'
'Američanů_'
'Alg'
'AKT_'
'= _'
': “_'
'84_'
'50'
'2030_'
'202'
'200'
'..."_'
' –'
' ] _'
' ''
'ы'
'р'
'е_'
'ς_'
'žu'
'žní'
'žné'
'žijící_'
'šed'
'Št'
'říkal_'
'říkají_'
'řádný'
'řik'
'ěs'
'ěna_'
'ěhoval'
'ěhl'
'čísla_'
'čný_'
'články_'
'čl'
'ă'
'ýš'
'ývající'
'účt'
'účinnější_'
'účel_'
'úvěrové_'
'úvahy_'
'útuln'
'ústřední_'
'úkoly_'
'údaj'
'ítá'
'íta'
'íh'
'éře_'
'ér_'
'áše'
'átu_'
'álního_'
'ál'
'áka'
'ák'
'áce'
'­ _'
'« _'
'závislost_'
'závisl'
'závazků_'
'závazku_'
'zás'
'záměr'
'základ'
'zák'
'zájmem_'
'záh'
'záb'
'zvířata_'
'zvyšovat_'
'zpravodaji_'
'znič'
'značnou_'
'změnil'
'zkušenost_'
'zkoušk'
'zkouše'
'zjevné_'
'zes'
'zem_'
'zdroj_'
'zdokonal'
'zbroj'
'zažil'
'zaslouží_'
'započ'
'zapojen'
'zapla'
'zaměstnanci_'
'zakláda'
'zajistili_'
'yv'
'yg'
'yesterday_'
'xin'
'with'
'wee'
'wed_'
'wear'
'wage_'
'výrobního_'
'výměny_'
'výhledu_'
'východ_'
'vzk'
'vzdálenost_'
'vyš'
'vyč'
'vyvíje'
'vyrábě'
'vypracoval'
'vynaložen'
'vym'
'vylepš'
'vybudovat_'
'vov'
'volně_'
'voličů_'
'volen'
'vod'
'vníma'
'vnitro'
'vlastní'
'vlajk'
'visible_'
'visi'
'virtually_'
'vidíme_'
'vhodných_'
'vhodn'
'velikost_'
'vegetables_'
'vašem_'
'vazby_'
'vary_'
'varov'
'vané_'
'vani'
'vakcín'
'užívání_'
'uži'
'uře_'
'uvědomit_'
'uskutečnit_'
'urgently_'
'urg'
'upře'
'upr'
'uplatňovat_'
'unwi'
'unm'
'undertaken_'
'undermine_'
'umí'
'ulin'
'ukončit_'
'ujícím_'
'ugh_'
'udržiteln'
'udržení_'
'udržel'
'ubi'
'těžko_'
'těší_'
'těl'
'tý_'
'témata_'
'typically_'
'typ'
'tvá'
'turist'
'tuc'
'tto'
'tta_'
'trib'
'trap'
'transfers_'
'train'
'tragedy_'
'track_'
'tova'
'tobacco_'
'tid'
'tib'
'thumb_'
'thu'
'thre'
'there'
'termín'
'telling_'
'technologick'
'tch'
'taxpayers_'
'taste_'
'tap'
'tamní_'
'takový'
'tabul'
'svá'
'svoboda_'
'svi'
'suspect'
'surroundings_'
'sunny_'
'subjekt_'
'stří'
'studii_'
'strik'
'strict_'
'stream_'
'stein_'
'stavě'
'starts_'
'starost'
'staro'
'stabilit'
'ssan'
'srpna_'
'spíš_'
'správným_'
'správn'
'spotřebitelé_'
'soukromý_'
'smus_'
'smart_'
'skonč'
'sklen'
'sjedn'
'situ'
'silnou_'
'silnic'
'shu'
'shr'
'sey_'
'sestav'
'sest'
'servers_'
'sending_'
'sehrá'
'sedmi_'
'sedm_'
'scientists_'
'sběr'
'satelitní'
'sat'
'rát'
'rychlý_'
'rozumn'
'rozpravě_'
'rozhovor'
'rozhodující_'
'rozhodli_'
'rovné_'
'rove'
'roof_'
'roh'
'rock_'
'rob'
'rist'
'rings_'
'rezervní'
'revi'
'reta'
'resolutions_'
'representing_'
'rep'
'rence_'
'ren_'
'remote_'
'reme'
'remarks_'
'regulated_'
'registered_'
'region'
'refund_'
'reforma_'
'recommendation_'
'raj'
'raising_'
'rag'
'původně_'
'případu_'
'přínosy_'
'přím'
'příloh'
'příkaz_'
'příběh_'
'přizpůsobení_'
'přis'
'přiměřené_'
'přijm'
'přijaté_'
'přidat_'
'přeč'
'přesvědč'
'přesn'
'předložil_'
'předložen'
'předkláda'
'puts_'
'pump'
'průmyslov'
'prá'
'proxy_'
'prote'
'prostřed'
'prospěšn'
'prohlásil'
'profese_'
'proda'
'problematik'
'princip_'
'princip'
'preserve_'
'prescribed_'
'pres'
'premi'
'preliminary_'
'preferred_'
'preferences_'
'poškození_'
'počítači_'
'pozorován'
'poznámk'
'pozná'
'považovat_'
'pouh'
'posun_'
'posu'
'poste'
'posledním_'
'posledního_'
'posla'
'posilování_'
'poradenství_'
'por_'
'populistick'
'poplatku_'
'poměru_'
'pomáhá_'
'polovině_'
'poli_'
'pokyny_'
'pokus_'
'pokládá'
'poklad'
'podílu_'
'podíl'
'podá'
'podvod'
'podp'
'pochopitelně_'
'pochopení_'
'plnit_'
'pleasure_'
'plateb_'
'pipeline_'
'phrase_'
'photos_'
'ped'
'passing_'
'parameters_'
'papíry_'
'palub'
'označ'
'ozbrojen'
'ově'
'ovoce_'
'ovi'
'overs'
'our'
'ostem_'
'oste'
'oslav'
'orá'
'originating_'
'opr'
'opozice_'
'opatřeních_'
'oly'
'oli_'
'oka'
'oga'
'offices_'
'odvolání_'
'odstavce_'
'odst'
'odsou'
'odpor_'
'oda'
'ochrán'
'occurs_'
'obsluh'
'obrany_'
'obliged_'
'obl'
'objemu_'
'následn'
'nted_'
'norma'
'norem_'
'nomic'
'nocí_'
'nobody_'
'nne'
'nity_'
'nili_'
'nh'
'nezbytný_'
'nezbytnou_'
'nevz'
'nestačí_'
'nesmíme_'
'nepřip'
'neprodleně_'
'nepoch'
'neom'
'nekon'
'nejlépe_'
'nejistot'
'nejedn'
'nejd'
'nedot'
'ncies_'
'nazýva'
'nationalism_'
'naléhav'
'najednou_'
'nahradit_'
'nach'
'nabídnout_'
'měsíci_'
'měnového_'
'mín'
'myšlenka_'
'myln'
'muž'
'monopol'
'modernis'
'milion'
'miliard'
'migrace_'
'mezer'
'metod'
'menšin'
'mene'
'med'
'mechanismu_'
'mechani'
'maritime_'
'mant'
'mani'
'managing_'
'majitel'
'lídr'
'lékařsk'
'lázeň_'
'lásk'
'luj'
'lowest_'
'lok'
'logic_'
'lock_'
'loc'
'loa'
'leu'
'leti'
'lek'
'leb'
'leas'
'lean'
'lde'
'lc'
'lation_'
'lace_'
'kách_'
'ky'
'kurz_'
'kun'
'kro'
'kování_'
'korupce_'
'kore'
'koordin'
'konč'
'kontrolovat_'
'konflikty_'
'konferenci_'
'kombinaci_'
'knihy_'
'knih'
'klíčovou_'
'kla'
'kl_'
'jších_'
'jump'
'joining_'
'jmen'
'jichž_'
'jednáních_'
'jednotlivými_'
'jedna'
'jazyků_'
'izovat_'
'ivní'
'italsk'
'islámsk'
'ision'
'isek_'
'irské'
'ire'
'involve_'
'invited_'
'intelligence_'
'insur'
'institucionální_'
'insist_'
'inse'
'inova'
'injury_'
'ining_'
'iniciativ_'
'informační'
'informacím_'
'informaci_'
'infa'
'impress'
'identifikova'
'ick'
'hrub'
'hrozn'
'hrozi'
'household_'
'horní_'
'hodnocen'
'hlíd'
'hluboké_'
'hlo'
'historie_'
'his'
'hir'
'hind'
'hed'
'heart'
'harmoni'
'hairdryer_'
'guide'
'grand_'
'govern'
'gova'
'glo'
'gem'
'fór'
'functional_'
'fulfil_'
'fri'
'franc'
'fosilních_'
'foremost_'
'folder_'
'flower'
'finds_'
'financovat_'
'ferr'
'fem'
'favor'
'fault_'
'fare_'
'fak'
'fa_'
'ez_'
'extremism'
'extraordinary_'
'exporte'
'expert'
'ether'
'esát'
'esti'
'esp'
'esa'
'epi'
'engineering_'
'engaged_'
'ends_'
'ending_'
'enables_'
'enabled_'
'emphasise_'
'emoc'
'emb'
'eln'
'ele_'
'ekonomik'
'eer'
'economically_'
'eau_'
'důsledkem_'
'důležitých_'
'dětská_'
'dávají_'
'duchu_'
'držitel'
'dropped_'
'drawing_'
'dox'
'downs'
'download'
'dovoz_'
'dosáhne_'
'dostane_'
'dosah'
'dopad'
'dodrž'
'doda'
'dobr'
'do'
'dno'
'dlužník'
'divi'
'disse'
'diskriminaci_'
'discussing_'
'discharge_'
'disadvantage'
'dirty_'
'devi'
'dest'
'desktop_'
'desired_'
'depth_'
'dele'
'deg'
'definitions_'
'daughter_'
'datum_'
'databáze_'
'dali_'
'dad_'
'crowd_'
'credits_'
'cool_'
'conventional_'
'constructive_'
'consonant'
'consent_'
'compo'
'complaint_'
'comparable_'
'communist_'
'colour_'
'coby_'
'cluster'
'cleaned_'
'cle'
'classification_'
'cio'
'cia_'
'chin'
'cet_'
'ces'
'certificate_'
'centraliz'
'cens'
'cenov'
'celkového_'
'causing_'
'capture_'
'captain_'
'cancel'
'břemeno_'
'burn'
'bublin'
'bubble_'
'branch_'
'boutique_'
'bing_'
'bij'
'bezpečí_'
'azen'
'automobilové'
'attentive_'
'attempting_'
'atmosfér'
'asta'
'association_'
'assa'
'asn'
'artificial_'
'arti'
'arguments_'
'argument'
'ara_'
'applying_'
'antid'
'anim'
'ances_'
'analýzu_'
'ami'
'ambiciózní_'
'alter'
'aggressive_'
'agentura_'
'affordable_'
'adl'
'adj'
'ade_'
'acco'
'abe'
'['
'Západu_'
'Zna'
'Zku'
'Zde_'
'Zas'
'ZO'
'ZA'
'Yo'
'Year_'
'Wikipedia_'
'We'
'Water'
'Výkon_'
'Venezuel'
'VI'
'UC'
'Type_'
'Tulip_'
'Trump_'
'Translat'
'Tob'
'Tit'
'Thu'
'Termini_'
'Tat'
'Tas'
'Swa'
'Svět_'
'Supreme_'
'Subs'
'Stud'
'Stor'
'Stay_'
'Společnost_'
'Space_'
'Soud'
'Some'
'Smith_'
'Slovenia_'
'Slovak_'
'Skype_'
'Ski'
'Seznam_'
'Schulz'
'Santiago_'
'STA'
'SIS_'
'Rozvod_'
'Rob'
'Riker_'
'Rem'
'Rec'
'RS_'
'Putinov'
'Pur'
'Product'
'Procedural_'
'Pres'
'Prac'
'Počet_'
'Pouze_'
'Poskyt'
'Plu'
'Plan_'
'Ping_'
'Pie'
'Petit_'
'Pers'
'Pass'
'Part_'
'PA_'
'PAR'
'Osob'
'Ord'
'Online_'
'OV'
'Nepř'
'Nelze_'
'Nejv'
'Namísto_'
'NG_'
'NGL_'
'Mon_'
'Mess'
'Martin'
'Marg'
'MS'
'MC'
'Luk'
'Los_'
'Lon'
'LingvoSoft_'
'Lin'
'Libanonu_'
'Ladies_'
'LT'
'Kurd'
'Konečně_'
'Kil'
'Kate'
'Kata'
'KA'
'Jsi_'
'José_'
'Israelis_'
'Investi'
'Intel'
'IN_'
'Hungarian_'
'Host'
'Hon'
'Holy_'
'Hiking_'
'HTML_'
'Goe'
'Germans_'
'Gazy_'
'GA'
'Free'
'Forge_'
'Finland_'
'Financ'
'FI_'
'Evropanů_'
'Estonsk'
'En_'
'Eli'
'Elect'
'Dot'
'Dokud_'
'Dobr'
'Dnešní_'
'DA_'
'Current'
'Countries_'
'Cot'
'Compl'
'Cla'
'Cit'
'Chamber_'
'Catal'
'Carlos_'
'Carlo'
'California_'
'CON'
'Building_'
'Budeme_'
'Brother'
'Bringing_'
'Bosnia_'
'Bob'
'Ben_'
'Balkans_'
'Bag'
'B6_'
'Ash'
'Ari'
'Argument_'
'Angli'
'Among_'
'Alternative_'
'Alliance_'
'About_'
'ACP_'
'69'
'350_'
'240'
'1st_'
'178'
'139_'
'-, _'
', ...'
'), '
'")'
'!'_'
'! '
' ]'
' . . . _'
'ّ'
'ع_'
'ر_'
'ст'
'п'
'от'
'б'
'žuje_'
'žený'
'žensk'
'Žádný_'
'Žádná_'
'ůstá'
'ůst'
'šťastn'
'šn'
'šlo_'
'řk'
'řej'
'ŘÍ'
'Řecka_'
'ňte_'
'ěn_'
'čínsk'
'čova'
'člun'
'členem_'
'čekal'
'čan'
'Čím_'
'ün'
'úředník'
'úřední_'
'úzce_'
'úvěr'
'úrovní_'
'úlev'
'ížení_'
'íže'
'írá_'
'ícího_'
'érie_'
'éa'
'äu'
'är'
'ář_'
'áza'
'átor_'
'ásn'
'ápě'
'ály_'
'álu_'
'ále'
'áj'
'ádě'
'ácí_'
'Úřad'
'°_'
'}}) '
'zón'
'získala_'
'zíra'
'záporn'
'záležitostech_'
'zákazník'
'zá'
'zvolil'
'zveřejnění_'
'zrychlené_'
'zraněn'
'zničen'
'znečištění_'
'změní_'
'zmíněn'
'zmate'
'zločinu_'
'zisky_'
'zim'
'zic'
'zho'
'zemního_'
'zdr'
'zavře'
'zastá'
'zastavil_'
'zapom'
'zapa'
'zakáza'
'zajišťování_'
'zajistily_'
'zajist'
'zahájil'
'zahrnují_'
'yle'
'ye_'
'worsen'
'wit'
'willingness_'
'widen'
'whilst_'
'wheel'
'wen'
'wav'
'vždycky_'
'věřil'
'vězni'
'věrn'
'věnoval'
'výz'
'vývozc'
'vývojář'
'výměnou_'
'výlučně_'
'výletů_'
'výkon'
'výhodu_'
'východu_'
'víno_'
'vína_'
'vzrostl'
'vzpomínk'
'vzdát_'
'vyž'
'vyvoláva'
'vyvolal'
'využíva'
'vyu'
'vysíla'
'vystav'
'vyspělých_'
'vyslech'
'vyskyt'
'vyrovnání_'
'vypadá_'
'vyloučen'
'vyjádření_'
'vyhledávací_'
'vychází_'
'vybaven'
'voli'
'vodou_'
'vní'
'vlož'
'vise'
'vessel_'
'verz'
'vamp'
'valid'
'vad'
'učení_'
'uče'
'uznávání_'
'uvádění_'
'uskutečn'
'usilov'
'určeno_'
'uring_'
'uprchlíků_'
'uplynul'
'upl'
'unprecedented_'
'unknown_'
'unit'
'unik'
'unfa'
'undergo'
'umírněn'
'umožňují_'
'umožněn'
'ukázalo_'
'ui'
'uhlíku_'
'uhlíkov'
'třetím_'
'týka'
'tvorbě_'
'tvor'
'turns_'
'tures_'
'tuj'
'tropic'
'tribun'
'trhem_'
'trh'
'trestné_'
'travelling_'
'travel'
'transit_'
'transakcí_'
'tran'
'tradice_'
'towels_'
'touh'
'totéž_'
'tors_'
'toll'
'tisíciletí_'
'tired_'
'tia'
'teč'
'tentokrát_'
'tennis_'
'tempo_'
'tej'
'tch_'
'tave'
'tati'
'takovému_'
'sílící'
'system'
'syndrom'
'světu_'
'svobodného_'
'svazk'
'sustainability_'
'sus'
'surely_'
'supervis'
'supers'
'suff'
'subway_'
'subt'
'styku_'
'sty_'
'studen'
'stu_'
'stránku_'
'strike_'
'stranách_'
'stran'
'straight'
'strachu_'
'steel_'
'stažen'
'statistik'
'statistics_'
'start'
'stanovuje_'
'standardní_'
'stad'
'stab'
'squa'
'spot'
'společná_'
'spoji'
'spell'
'speed'
'speciáln'
'sour'
'soudem_'
'sotva_'
'sona'
'solve_'
'sní'
'snap'
'snah'
'směr_'
'smíř'
'smrt_'
'smile_'
'službami_'
'slov'
'skupinami_'
'sku_'
'skoro_'
'skončení_'
'sing'
'simplify_'
'sic'
'shut_'
'shing_'
'sheet_'
'severo'
'setká'
'separated_'
'sektor'
'seed_'
'sdružení_'
'scénář'
'schůzk'
'saved_'
'sanita'
'sake_'
'sah'
'rychlé_'
'ruské_'
'ruled_'
'ruin'
'rtis'
'rra'
'rozumí_'
'rozsudek_'
'rozs'
'rozh'
'row_'
'rovnost_'
'rní_'
'rm'
'ring'
'revoluci_'
'reveal'
'retain'
'restri'
'respondent'
'resid'
'republikán'
'reply_'
'replied_'
'rejection_'
'regret_'
'registr'
'reductions_'
'realizovat_'
'reactions_'
'rativ'
'raket'
'raf'
'ract'
'quo_'
'quietly_'
'qu'
'příčinou_'
'přípravy_'
'přípravek_'
'příběh'
'přá'
'přispě'
'připraven_'
'přinášejí_'
'přijímání_'
'přijdou_'
'přijali_'
'přihl'
'přestal'
'přerušení_'
'přerušen'
'přem'
'přeje'
'přehlíže'
'přehled_'
'přeh'
'představitele_'
'předn'
'předmět'
'přechodn'
'pís'
'pás'
'právn'
'prvek_'
'prudce_'
'prověř'
'provedena_'
'protectionis'
'prosaz'
'pronik'
'prompt'
'prokázat_'
'proje'
'programming_'
'procesy_'
'procedural_'
'principu_'
'prev'
'premiéra_'
'pravo'
'pravi'
'pravděpodobností_'
'prací_'
'požadované_'
'počáteční_'
'pozor_'
'poznámka_'
'poznat'
'povzbuz'
'považují_'
'pot_'
'posuzování_'
'posun'
'posou'
'poskytovatel'
'portugalsk'
'porta'
'popř'
'pools_'
'pong_'
'pomohl'
'pollution_'
'politi'
'poj'
'podívat_'
'podr'
'pocház'
'pleas'
'plavidel_'
'planetě_'
'pit_'
'pira'
'phy'
'phon'
'pesticides_'
'permanently_'
'periodic'
'penalty_'
'pen_'
'participating_'
'participants_'
'pari'
'pani'
'ozen'
'owner_'
'owned_'
'ous'
'ound_'
'ouk'
'otevřený'
'orov'
'optimis'
'opt_'
'operator_'
'ool'
'onsk'
'onal'
'ome_'
'olen'
'okolnosti_'
'ohro'
'odt'
'odpovědný'
'odehrá'
'odd_'
'obviously_'
'obrovskou_'
'oboru_'
'obohac'
'obez'
'obecné_'
'obdobn'
'obchod'
'něte_'
'někoho_'
'něji_'
'nč'
'nář'
'návratu_'
'nástroji_'
'nárůstu_'
'národn'
'náro'
'nápad_'
'námitky_'
'nále'
'náboženské_'
'nto'
'notify_'
'nodded_'
'nižším'
'nine_'
'nie_'
'nica'
'nezbytných_'
'nevyv'
'neutr'
'ness'
'nesprávn'
'nesouhlasí'
'nere'
'nepřes'
'nepodařilo_'
'nenap'
'nemocí_'
'nel_'
'nejp'
'neighbourhood_'
'nedostatku_'
'nedos'
'nedal'
'nec'
'nda_'
'nche'
'naz'
'navrhl_'
'nastav'
'nainstalova'
'nabídka_'
'mé'
'myšlení_'
'myslet_'
'mysl'
'mož'
'movements_'
'mother'
'moo'
'monitor'
'momentálně_'
'mobilis'
'mixed_'
'mix'
'missing_'
'minorities_'
'minimis'
'mine_'
'minat'
'mil_'
'migrant'
'mig'
'metr'
'mere_'
'memori'
'melt'
'mechanismů_'
'mber'
'mari'
'manufacture'
'manipul'
'malári'
'maintaining_'
'lve'
'lunch_'
'luc'
'louva'
'lot'
'lon_'
'lock'
'ller_'
'lled_'
'listiny_'
'like'
'lidskou_'
'licences_'
'levn'
'lett'
'lech'
'leaves_'
'lea'
'lah'
'křiv'
'kvalifikovan'
'kruh'
'krach'
'koš'
'ková_'
'kontrolou_'
'konte'
'konstruktivní_'
'konsenzu'
'koncentrace_'
'komplex'
'koloni'
'kolektivní_'
'kladn'
'kilogram'
'kilo'
'kapitálové_'
'kace_'
'kabel'
'judges_'
'jem_'
'jednotného_'
'jednak_'
'jdou_'
'jakýkoli'
'ivu_'
'iu_'
'itu_'
'itiv'
'issuing_'
'ione'
'ionary_'
'ional'
'invitation_'
'inv'
'intentions_'
'intent'
'instruction_'
'installer_'
'insi'
'inis'
'informoval'
'infi'
'infe'
'incomes_'
'inci'
'imper'
'imate'
'ika_'
'ico'
'ického_'
'iar'
'hý'
'ház'
'hypot'
'hrůz'
'hoval'
'hospodářském_'
'hopes_'
'holder_'
'hodiny_'
'hma'
'hledat_'
'heritage_'
'heal'
'harmonizaci_'
'han_'
'hair'
'gul'
'granting_'
'gnome_'
'glance'
'glad_'
'gens'
'genetick'
'gardens_'
'gallery_'
'fun'
'frequency_'
'fren'
'fraud_'
'fot'
'formulat'
'ford_'
'focusing_'
'firemní_'
'fired_'
'fini'
'financed_'
'feed'
'fashion_'
'farming_'
'falešn'
'faktorem_'
'facility_'
'eční'
'export'
'explicitly_'
'evident_'
'esta'
'eo_'
'environmentální_'
'entra'
'ente'
'ensk'
'eng'
'eness_'
'enda'
'enabling_'
'employers_'
'emit'
'emis'
'emerged_'
'embrace_'
'elný'
'elektrárn'
'elb'
'edo'
'edl'
'editor_'
'eden'
'echl'
'důvěrn'
'důstojník'
'dějin_'
'dý'
'dst'
'držen'
'dream_'
'drag'
'dož'
'dočasné_'
'dozen_'
'dostává_'
'dostupn'
'dostalo_'
'dosahuje_'
'dor_'
'done'
'domácností_'
'dodatečné_'
'doctors_'
'dluhopisy_'
'dlu'
'dismiss'
'disma'
'disi'
'directives_'
'dimen'
'diktatur'
'dignity_'
'difficulty_'
'dictionary_'
'describe_'
'demokratických_'
'demanding_'
'delegace_'
'decides_'
'decent_'
'dat'
'damn'
'cítí_'
'cz'
'cular'
'contractual_'
'consolidated_'
'conservati'
'coni'
'configure_'
'concert'
'compulsory_'
'completion_'
'color'
'colon'
'coe'
'coc'
'clothes_'
'cler'
'cleare'
'cleaning_'
'clarity_'
'civilian_'
'chyba_'
'chu'
'chronick'
'chop'
'child'
'chat'
'charakter'
'characters_'
'chal'
'cestovní_'
'calm_'
'calc'
'cag'
'běžných_'
'běžn'
'bě_'
'butter_'
'bureaucratic_'
'budov_'
'brzd'
'brief_'
'breed'
'bos'
'boom'
'bond_'
'bohaté_'
'boh'
'bo_'
'black'
'billions_'
'baru_'
'balíky_'
'bak'
'badly_'
'baby_'
'ač_'
'avoiding_'
'avo'
'attached_'
'assessing_'
'aris'
'aria'
'arabské'
'appearance_'
'appeal'
'appe'
'apa'
'anyway_'
'anger_'
'and'
'ampl'
'amat'
'alise_'
'alien'
'akt'
'agresivn'
'agree'
'aero'
'ador'
'ado'
'adding_'
'acquis_'
'acknowledg'
'achi'
'ache'
'accounting_'
'accomplish'
'accident'
'abilit'
'aba'
'Záv'
'Zás'
'Zák'
'Zjednodušené_'
'Zh'
'Zad'
'Wu'
'Wil'
'Výroba_'
'Východ'
'Výb'
'Vím_'
'Vyp'
'Vyh'
'Verona_'
'Van_'
'VO'
'UN'
'Ty'
'Topics_'
'Temp'
'Tel_'
'Tar'
'Sym'
'Sudan_'
'Střední_'
'Step'
'Současná_'
'Som'
'Solidarity_'
'Sma'
'Slovenian_'
'Skutečnost_'
'Ski_'
'Simplified_'
'Ses'
'Salzburg_'
'Sad'
'Sac'
'Ré'
'Rozhodné_'
'Round_'
'Roissy_'
'Rod'
'Richard_'
'Ric'
'Ret'
'RS'
'Que'
'Přij'
'Přej'
'Publi'
'Prů'
'Poznámky_'
'Poly'
'Pokr'
'Pojď'
'Podobně_'
'Patri'
'PDF_'
'Opatřování_'
'Oh'
'Odp'
'Obecně_'
'OS_'
'ON'
'Number_'
'Nothing_'
'Nig'
'Nep'
'Nan'
'Měla_'
'Museum_'
'Ms_'
'Mot'
'Modern_'
'Mir'
'Miles_'
'Michel_'
'Maďarsk'
'Marin'
'Man_'
'Mah'
'Loc'
'Lisabonskou_'
'Likewise_'
'Lei'
'Lag'
'Kč_'
'Kri'
'Kabelové_'
'Jud'
'Již_'
'Iranian_'
'Ing'
'IS_'
'IPA_'
'IM'
'IL'
'ICT'
'Horn'
'Hop'
'History_'
'Herm'
'HE'
'Guan'
'Gua'
'Gruzii_'
'Gruzie_'
'Germanic_'
'Gan'
'Games_'
'GE'
'Fro'
'Fel'
'Evropou_'
'Ep'
'Eden_'
'Economi'
'ERDF_'
'ECTACO_'
'Dv'
'Dur'
'Drag'
'Dor'
'Domini'
'Dne_'
'Dl'
'Dani'
'DP'
'Custom'
'Cris'
'Cou'
'Compensation_'
'Coa'
'Chtěla_'
'Chtě'
'Cham'
'Chairman_'
'Cest'
'Certifi'
'Catholic_'
'Cannes_'
'CAMBRIDGE_'
'Byli_'
'Burma_'
'Budapest_'
'Bud'
'Bridge_'
'Bla'
'Bio'
'Bern'
'Berlusconi_'
'Australia_'
'Aus'
'Argentin'
'Andre'
'Američan'
'Ameriku_'
'Americk'
'Aid_'
'Ach'
'Abe'
'AU'
'AL_'
'AA'
'?“ _'
'; '
'85'
'70'
'184'
'183'
'126'
'1000_'
'100'
'*)'
')|_'
'''._'
'% '
' …'
' *'
' #'
'”, _'
'и_'
'υ'
'žáda'
'žád'
'životaschopn'
'ženami_'
'železniční_'
'žd'
'Žalob'
'ťte_'
'šp'
'šli_'
'šle'
'Še'
'řiv'
'ředitel'
'řazen'
'ł'
'ěr_'
'ěny_'
'ěno_'
'ělo'
'ěli_'
'ěle'
'členka_'
'čk'
'činu_'
'čený'
'časn'
'čas'
'Číňané_'
'ývá'
'ýval'
'účinný_'
'účinků_'
'účastníci_'
'úvod'
'ústavy_'
'úspěšně_'
'úrokovým'
'úplné_'
'únik'
'ña_'
'írání_'
'íránské'
'íc_'
'édl_'
'áš'
'átory_'
'átor'
'ánsk'
'álním_'
'álen'
'áhnout_'
'ác'
'|'
'{{_'
'zúčastněných_'
'zóny_'
'závěre'
'zátěž_'
'zásoby_'
'zásilk'
'záplav'
'zání_'
'záleží_'
'zál'
'základy_'
'zákazu_'
'zub'
'zrušit_'
'zrovna_'
'zrod'
'způsobí_'
'způsoben'
'zpro'
'zohledněn'
'zohlednit_'
'známé_'
'zlepší_'
'zkr'
'zjistil_'
'zj'
'zisk_'
'zion'
'zemřel'
'zeměpisn'
'zemědělců_'
'zdůraznila_'
'zdroji_'
'zdo'
'zde'
'zba'
'zařazení_'
'začnou_'
'zapojit_'
'zanedb'
'zaměř'
'zamýšl'
'založeno'
'zajímavé_'
'zahrnut'
'zachoval'
'ykl'
'yce'
'yard_'
'xy_'
'xim'
'xeno'
'withdrawal_'
'vůdčí_'
'vězení_'
'větl'
'vědom'
'včera_'
'výš'
'výzkumné'
'výrobní_'
'výrobku_'
'výpočt'
'výlet'
'výchov'
'vída'
'víd'
'vzestup_'
'vzdělávací_'
'vzdělávací'
'vyžadoval'
'vyšl'
'vyčerp'
'vyvolat_'
'vyvinout_'
'využíván'
'využívá_'
'vyslov'
'vyrovnat_'
'vypu'
'vypla'
'vyp'
'vymezen'
'vyjádřen'
'vyho'
'vul'
'vs'
'volném_'
'vojenskou_'
'vnímá'
'vládc'
'vlast'
'vky_'
'visual_'
'vhodná_'
'večer'
'versions_'
'vere'
'velitel'
'vedením_'
'varoval'
'vari'
'učinil_'
'ux_'
'ux'
'uts'
'utility_'
'util'
'uti'
'usnadnění_'
'usku'
'určitého_'
'upo'
'updates_'
'uov'
'uo'
'unw'
'uniform_'
'unfair_'
'uncon'
'umi'
'uložen'
'ukáz'
'ukončen'
'uci'
'uali'
'tříd'
'tř'
'tý'
'tář'
'typy_'
'turb'
'tun'
'trol'
'trips_'
'triple_'
'trestu_'
'trendy_'
'treatments_'
'translati'
'trag'
'tradi'
'torture_'
'tone_'
'toky_'
'tob'
'tiše_'
'tionally_'
'tighten'
'tif'
'tical'
'tic'
'threatened_'
'theme_'
'testování_'
'teorie_'
'tensions_'
'tender'
'televiz'
'techno'
'technic'
'tat_'
'tang'
'takzvané_'
'tajemství_'
'tain_'
'síl'
'syna_'
'switch_'
'světlo_'
'sval'
'suspended_'
'survive_'
'suggesti'
'sufficiently_'
'such'
'středu_'
'stěží_'
'stěž'
'stín'
'strom'
'strange_'
'stní_'
'stm'
'stl'
'stické_'
'stejná_'
'stanovená_'
'standard'
'stan_'
'stake_'
'stain'
'spuštěn'
'spur'
'správních_'
'správce_'
'spravedlivý'
'spočíva'
'společným_'
'splnit_'
'spir'
'speaker_'
'souvisí_'
'soupeř'
'soukrom'
'soudržnost_'
'soft'
'sníží_'
'snídani_'
'sne'
'snahu_'
'slep'
'slabé_'
'sl_'
'skvěl'
'skutečná_'
'sku'
'sklon_'
'sklad'
'sively_'
'sir'
'silver_'
'signa'
'sia'
'shoulder_'
'short'
'shel'
'sharply_'
'sez'
'severu_'
'seve'
'settings_'
'serv'
'sent'
'sely_'
'securities_'
'seal'
'schopné_'
'scho'
'scandal_'
'samé'
'samostatně_'
'různ'
'rychlostí_'
'rychlo'
'rusk'
'ruka'
'rse'
'rozr'
'rozpou'
'rozhodčí'
'rozhodn'
'rozdíl'
'rost'
'romantic'
'rodina_'
'rid_'
'rgi'
'reži'
'returns_'
'respective_'
'reserved_'
'republi'
'renew'
'removal_'
'regulat'
'recy'
'recom'
'recesi_'
'reasonably_'
'reagoval'
'rdin'
'rational_'
'random'
'rali'
'rai'
'quest_'
'qualify_'
'qualifications_'
'přístupy_'
'příslušenství_'
'přípravu_'
'přípravků_'
'přínos'
'přímé_'
'přílišn'
'přiznán'
'přistoupil'
'přirozen'
'připravil'
'přil'
'přidružení_'
'přežití_'
'přepravy_'
'přej'
'předáva'
'přednes'
'předchozím_'
'píš'
'pursuing_'
'purely_'
'purchase'
'ption_'
'pti'
'psychologic'
'právnick'
'prvků_'
'prozatímní_'
'provozovatel'
'provinci'
'provedeny_'
'proveden'
'proved'
'proud_'
'protests_'
'prospě'
'prosper'
'prospect_'
'propojen'
'prokazuj'
'profit'
'profesionální_'
'prodl'
'procesní_'
'procedur'
'proběhl'
'prezidentský'
'prevenci_'
'press'
'preserv'
'preca'
'pravideln'
'poštou_'
'poškozen'
'poří'
'pozitivní'
'power'
'pově'
'povede_'
'pour_'
'potřebnou_'
'posíl'
'postr'
'postižených_'
'poslancům_'
'poráž'
'poplatků_'
'pomáha'
'pomal'
'polí'
'polský'
'položek_'
'pokyn'
'pokusil'
'pojm'
'pohledávka_'
'pohlaví_'
'podobný_'
'podléhají'
'podivn'
'podepsal'
'pobřeží_'
'poboč'
'plá'
'plot'
'plod'
'platné_'
'planet'
'phenomenon_'
'perpet'
'pere'
'password_'
'partnerů_'
'očekávan'
'ovní'
'ovanou_'
'outstanding_'
'oun'
'ouch'
'otázkám_'
'otro'
'otevřeně_'
'otc'
'ota_'
'ostrovy_'
'oslov'
'organ'
'orc'
'opti'
'opravy_'
'operační_'
'operací_'
'onist'
'omin'
'omez'
'okupa'
'okna_'
'ohromn'
'off'
'odvolací'
'odsoudil'
'odraz'
'odpočin'
'odlišn'
'oce'
'occurred_'
'occupation_'
'oběť'
'občas_'
'obu'
'níků_'
'né'
'návr'
'národy_'
'nápo'
'nutnost_'
'nské_'
'novými_'
'novi'
'novel_'
'novel'
'normální_'
'nings_'
'nikoho_'
'nge'
'nežádoucí_'
'nezá'
'nezměn'
'nezdar'
'nevyp'
'neviděl'
'nete_'
'ners_'
'nepřij'
'nepa'
'nemůž'
'nemám_'
'nemohl_'
'nemoci_'
'nemoc'
'neko'
'nejvýznamnější'
'nejnižší'
'nejlepším_'
'neja'
'neighborhood_'
'nedovol'
'nedostatkem_'
'nebudu_'
'nebudeme_'
'ne'
'nct'
'nb'
'navštív'
'navr'
'navi'
'nastavit_'
'nalé'
'nahrazen'
'nahr'
'nabízejí_'
'měr'
'měnový_'
'místopředsed'
'místem_'
'média_'
'myšlenku_'
'myšlenk'
'myslel'
'museums_'
'mud'
'mravní'
'motorov'
'modernizac'
'mnoho'
'mitigat'
'mit_'
'missi'
'missed_'
'mins_'
'micro_'
'metod_'
'mess'
'mes'
'menu'
'meals_'
'matri'
'massa'
'mandát_'
'male_'
'makers_'
'majetek_'
'machinery_'
'lž'
'lů_'
'lý_'
'líc'
'létě_'
'látk'
'lv'
'luv'
'lost'
'lord'
'londýnsk'
'lokali'
'logo'
'lně'
'lle_'
'lle'
'lively_'
'lite'
'linie_'
'lini'
'lighting_'
'lifted_'
'lidové_'
'lich'
'license_'
'licencí_'
'liabilities_'
'lf'
'letters_'
'letní'
'letecký'
'leta'
'legislat'
'leak'
'lati'
'laptop_'
'lap'
'lamp'
'lacking_'
'labelling_'
'label'
'kvóty_'
'kurz'
'kryt'
'kreditní_'
'kovan'
'končí_'
'konzultace_'
'konz'
'kontrol_'
'kont'
'konkurenceschopn'
'komerční'
'klíče'
'klinick'
'klidu_'
'klesající'
'kla_'
'killing_'
'kdyby'
'každo'
'kara'
'kapitálových_'
'kapitálov'
'kampaň_'
'kali'
'jím'
'justi'
'jský'
'jižní_'
'jist_'
'jednotek_'
'jednodušší_'
'jak'
'izraelský'
'izraelské'
'isté_'
'ising_'
'irsk'
'iron_'
'iro_'
'ious_'
'iná'
'invested_'
'invaz'
'invalid'
'introducing_'
'interval'
'interconnect'
'intera'
'insul'
'instructions_'
'insight'
'ino'
'innocent_'
'iniciativ'
'infringement_'
'info_'
'inflat'
'indik'
'incorporated_'
'incon'
'imuni'
'imit'
'ilu'
'ileg'
'ihned_'
'ignore_'
'iding_'
'ideology_'
'ideologick'
'identifika'
'identification_'
'ici_'
'ibit'
'há_'
'hypoték'
'hypo'
'hypert'
'hvězdn'
'hvězd'
'hur'
'hraniční'
'hování_'
'house'
'hostitelsk'
'hospodářskému_'
'honourable_'
'hon'
'homel'
'holders_'
'hle'
'hlav'
'hire_'
'hidden_'
'heavily_'
'healthcare_'
'harmonised_'
'hal_'
'habe'
'guy_'
'gun'
'gum'
'guaranteed_'
'gott'
'gos'
'gle'
'gg'
'generální_'
'gati'
'gard'
'fyzi'
'fought_'
'fotbalov'
'formální_'
'formov'
'formation_'
'flaw'
'flash'
'fixing_'
'fix'
'findings_'
'financovan'
'fia'
'feat'
'farms_'
'fam'
'facto_'
'fact'
'expire'
'existoval'
'existen'
'execut'
'exciting_'
'examin'
'evaluat'
'eurozón'
'euros_'
'ety_'
'etický'
'estimate_'
'eso'
'ese'
'erá'
'ert'
'episode_'
'enš'
'enzym'
'enth'
'enov'
'energi'
'energetické'
'enact'
'elo_'
'ella_'
'ell'
'elektřiny_'
'elektřin'
'elektrick'
'ekt'
'ekologické_'
'educated_'
'eb_'
'důležit'
'důkladně_'
'dřeva_'
'díl'
'dávno_'
'dávn'
'dynami'
'dw'
'dvoj'
'dva'
'dum'
'duj'
'druhá_'
'drives_'
'driven_'
'dovážen'
'dosáhli_'
'dosáhla_'
'dostala_'
'doprava_'
'doporučen'
'doplňkov'
'domě_'
'dom_'
'dokonal'
'dodatečn'
'dlouhodobou_'
'distribu'
'diplomatick'
'dio'
'diktátor'
'dikt'
'dialog'
'df'
'desítky_'
'destruction_'
'destru'
'destin'
'designated_'
'derogation_'
'derived_'
'demokra'
'demografick'
'democracies_'
'delegation_'
'dek_'
'debates_'
'dají_'
'cítit_'
'cut'
'customer_'
'cukru_'
'crat'
'cow'
'cova'
'count'
'costly_'
'cosm'
'cord'
'contradict'
'continu'
'consol'
'consists_'
'conservative_'
'conse'
'conc'
'comput'
'compar'
'committees_'
'comforts_'
'combines_'
'collecti'
'clon'
'climb'
'clean'
'clarifi'
'cháze'
'chová'
'chor'
'chodní'
'chill'
'chas'
'chapter_'
'chairs_'
'cest'
'centers_'
'cenných_'
'celkov'
'cel_'
'cano'
'camp'
'bě'
'bydl'
'button_'
'bus'
'bury_'
'budovy_'
'broader_'
'breath'
'breach_'
'brat'
'bone_'
'bols'
'blocks_'
'block'
'blind_'
'blaho'
'biolog'
'bezplatné_'
'beze_'
'beneficial_'
'benefi'
'beings_'
'begun_'
'azn'
'automobil'
'automatické_'
'autom'
'atu'
'asylum_'
'asti'
'assert'
'arrow'
'array_'
'arn'
'arma'
'aries_'
'argumenty_'
'architectur'
'apti'
'appropriations_'
'appa'
'anonym'
'ano'
'annulment_'
'analyz'
'analyse'
'amu'
'amongst_'
'amid'
'alto'
'alov'
'alongside_'
'allo'
'alimentační_'
'align'
'alen'
'aktivi'
'ako'
'akc'
'ající'
'agent'
'afrických_'
'affecting_'
'adverse_'
'adresa_'
'admir'
'adapted_'
'activ'
'ach'
'accus'
'accommodat'
'absenci_'
'`_'
'Západ_'
'Zdrav'
'Zat'
'Zam'
'XX'
'Wea'
'Wat'
'WC_'
'Vše'
'Využ'
'Vulcan_'
'Vs'
'Ved'
'Valley_'
'Upon_'
'Ukrajině_'
'Ud'
'Tradi'
'Tool'
'Thursday_'
'Three_'
'Termin'
'Technology_'
'Tam'
'TP_'
'TO'
'TION_'
'Sýrii_'
'Sun'
'Stá'
'Structural_'
'Stav'
'Start_'
'Stability_'
'Sir'
'Sing'
'Seri'
'Sav'
'Sai'
'Saddam_'
'SPOLEČENSTVÍ_'
'Ry'
'Rock'
'Rela'
'Rein'
'Really_'
'Příprav'
'Proti_'
'Prom'
'Production_'
'Poznámka_'
'Poj'
'Point_'
'Podívej'
'Podmínky_'
'Play'
'Paul'
'Park'
'Parental_'
'Palestin'
'PL'
'Ou'
'Ostatně_'
'Oper'
'Obr'
'Obam'
'OP_'
'OM'
'OECD_'
'Návr'
'NÁ'
'Norw'
'Nord'
'Nizozemsko_'
'Nizozemsk'
'Než_'
'Nevím_'
'Nedávn'
'Navrh'
'Nastavení_'
'NA_'
'Můžeme_'
'Mé'
'Máte_'
'Mr'
'Mnohé_'
'Mitt'
'Mic'
'Mem'
'Maxim'
'Mars'
'Manu'
'Mahm'
'Machine_'
'MU'
'MEPs_'
'MAR'
'MAP'
'Louis_'
'Lotyšsk'
'Lit'
'Limit'
'Latin'
'LE_'
'LAN'
'Kul'
'Kosova_'
'Koreji_'
'Kore'
'Kontrol'
'Klaus'
'Kir'
'Kim_'
'Kh'
'Key_'
'Kara'
'KOMISE_'
'KI'
'Jim'
'Jews_'
'Jav'
'JP'
'Iz'
'Irska_'
'Inv'
'Imperial_'
'Ic'
'IO'
'ID'
'Human'
'Hl'
'Hill'
'Hel'
'Hard'
'Hamásu_'
'Growth_'
'Gran'
'Govern'
'Genera'
'Gat'
'Gam'
'GU'
'Fond_'
'Fan'
'Face'
'Everyone_'
'Ever'
'Eri'
'Enter_'
'Ekonomi'
'Eff'
'EIB_'
'EI'
'Dětské_'
'Dě'
'Dáv'
'Druhou_'
'Director'
'Cít'
'Cuba_'
'Credit_'
'Consider_'
'Consequently_'
'Chávez_'
'Centr'
'Cathedral_'
'Cas'
'Cargo_'
'Cam'
'CP'
'CHF_'
'Byly_'
'Burg'
'Billiards_'
'Bi'
'Bell'
'Bed'
'Barn'
'Bak'
'Bah'
'Austr'
'Are'
'Applicable_'
'Appe'
'Ang'
'Allergy_'
'Ala'
'Akt'
'Afrika_'
'Access_'
'ALWIL_'
'AK'
'?”_'
'80'
'79_'
'79'
'71'
'2050_'
'2016_'
'1950_'
'189'
'130_'
'125_'
'05'
'020'
'002'
'**'
'):_'
'' '
'!!_'
' – „_'
' ...'
' .'
' --_'
' ''[[_'
'ق_'
'žova'
'žov'
'žní_'
'životní'
'žili_'
'žalobc'
'žadatel_'
'ůž'
'ťov'
'šť'
'štin'
'šsk'
'šl'
'škrt'
'škole_'
'ška'
'široký'
'šer'
'šek_'
'Šp'
'řský'
'řeck'
'Ř'
'ňující_'
'ňov'
'ěz'
'ětí_'
'ěly_'
'ědom'
'částka_'
'čuje_'
'čtvrtin'
'čisto'
'čil_'
'červnu_'
'čeká'
'časové'
'časov'
'Česká_'
'ýb'
'účetních_'
'účastník'
'úvěry_'
'útvar'
'úspor'
'úpravě_'
'úplné'
'íze'
'íránsk'
'ín_'
'íli'
'éž_'
'éc'
'ção_'
'áš_'
'ávat_'
'ávají_'
'ári'
'áb'
'Úřední'
'Úpadek_'
'Î'
'»'
'zůstane_'
'zůst'
'zčásti_'
'zúčastněné_'
'závěr'
'zád'
'zábav'
'zvážit_'
'zvol'
'ztráta_'
'způsobu_'
'způsobilo'
'zprostředkovatel'
'zotavení_'
'zobrazení_'
'znečišť'
'znalost'
'změnou_'
'změnami_'
'zku'
'zen_'
'zemsk'
'zařízením_'
'zaujím'
'zasáhl'
'zastáva'
'zastavil'
'zapr'
'zani'
'zaměstn'
'zakáz'
'zakořeněn'
'zako'
'zakaz'
'zajišťova'
'zajištěno_'
'zadlužení_'
'zachr'
'zachová'
'zabíje'
'yu'
'ysl'
'ws'
'writer_'
'wre'
'whi'
'wei'
'websites_'
'wat'
'walked_'
'wai'
'wag'
'věřitelů_'
'věnuje_'
'věděl'
'výživného_'
'výzv'
'významných_'
'výstavb'
'výnosů_'
'výměn'
'výjimečn'
'výbor'
'víš_'
'vztahují_'
'vzr'
'vzpom'
'vzdělan'
'vzdálenosti_'
'vyšším'
'vyřešení_'
'vyzv'
'vyvolá'
'vyvolan'
'vytr'
'vystoupení_'
'vypoč'
'vypo'
'vyplývají'
'vynes'
'vyloučení_'
'vykoná'
'vykonavatel'
'vyklád'
'vykl'
'vybaveny_'
'vy'
'vrh'
'vous_'
'volbami_'
'vodní_'
'voda_'
'vnějších_'
'vnější'
'vládní'
'vle'
'virtu'
'view'
'via'
'veřejným'
'veřejném_'
'vez'
'venkovských_'
'velkého_'
'velko'
'vaš'
'vat'
'vali'
'vací_'
'užitečné_'
'ušen'
'učit_'
'uznává_'
'uváž'
'uvi'
'uvažov'
'uva'
'utter'
'ust_'
'usnad'
'uskutečnil'
'urychlit_'
'urge_'
'urge'
'ups'
'upravit_'
'upn'
'uplynulých_'
'uplatňován'
'ung_'
'underline'
'unce'
'umožnilo_'
'umožnil_'
'uložit_'
'ulan'
'ude_'
'třída_'
'třicet_'
'třech_'
'těsně_'
'tém'
'twi'
'tvoř'
'tv_'
'tune'
'tun_'
'tte_'
'tt_'
'trá'
'treati'
'transparentnost_'
'trained_'
'tracking_'
'tový'
'továrn'
'tito_'
'tig'
'threshold_'
'them'
'terri'
'terminology_'
'term'
'teor'
'tempt'
'tek'
'techniques_'
'tative_'
'tand'
'takzvaný'
'tablet'
'tables_'
'série_'
'systémech_'
'syrsk'
'symboli'
'symbol'
'swift'
'swap_'
'světovou_'
'svát'
'svol'
'surr'
'suppliers_'
'supp'
'successor'
'substitute_'
'subparagraph_'
'subjects_'
'subc'
'stů_'
'sté_'
'studií_'
'stud'
'struggle_'
'stroll_'
'stream'
'stem_'
'stejného_'
'steam_'
'stabilizac'
'ssa'
'srov_'
'srdečně_'
'spustit_'
'spring_'
'sporn'
'spojenci_'
'spoj'
'spectr'
'současná_'
'sound'
'souhrnn'
'soldiers_'
'social'
'soc'
'sní_'
'snažila_'
'snaha_'
'smoke_'
'smiled_'
'slá'
'službách_'
'slučiteln'
'slowly_'
'slave'
'slaughter'
'slad'
'slabší'
'skutečným_'
'skrýv'
'sjednocení_'
'sjednocen'
'sity_'
'sion'
'sio'
'silent_'
'signál'
'significance_'
'shook_'
'shocks_'
'shit_'
'shar'
'seznámi'
'sell'
'seize'
'sehr_'
'seconds_'
'sdělovací'
'sda'
'scu'
'schopn'
'schodky_'
'schodk'
'scenario_'
'sce'
'satisfaction_'
'safely_'
'safeguard_'
'rávní'
'rut'
'ruka_'
'rr'
'rozvíjející_'
'rozvojovou_'
'rozvod_'
'rozmanitosti_'
'rozlo'
'rozl'
'rozhodovat_'
'rozhl'
'rovnováhu_'
'roste_'
'root'
'rně'
'rku'
'reálných_'
'reviv'
'reverse'
'residents_'
'requests_'
'repres'
'repay'
'remi'
'relativní_'
'reh'
'reguláto'
'regarded_'
'references_'
'rede'
'recon'
'recip'
'recese_'
'realistick'
'ravi'
'rated_'
'raci'
'působil'
'půjč'
'pš'
'příčiny_'
'příz'
'přítomnosti_'
'přístupn'
'příslušníků_'
'příručk'
'přípustn'
'přípravě_'
'příjmov'
'příhod'
'přátelsk'
'přistýlce_'
'připravova'
'připomíná_'
'přilož'
'přijíma'
'přidán'
'přeži'
'přeš'
'přezkum_'
'přetrváva'
'přesouv'
'přesnost'
'přepravu_'
'přemýšle'
'přel'
'překonat_'
'překon'
'přehnan'
'předa'
'přechodu_'
'přechodné'
'pěstování_'
'pěl'
'pásm'
'pád'
'pá'
'pull_'
'psy'
'právům_'
'provozova'
'provok'
'providers_'
'provider_'
'protect'
'propaga'
'promises_'
'prol'
'projevy_'
'prohlíd'
'prohibit'
'produktivit'
'producer_'
'produ'
'prodej'
'process'
'prisoners_'
'priced_'
'pressing_'
'presentation_'
'present'
'pren'
'premiér'
'pravidle'
'pragmati'
'pracovišt'
'poštovní_'
'poškoz'
'pořadí_'
'počtem_'
'povolit_'
'povahy_'
'používán'
'poukázal'
'poukazuje_'
'potřeboval'
'potom'
'poten'
'posílí_'
'posádky_'
'poslance_'
'poskytující'
'pose_'
'populac'
'poorly_'
'poorer_'
'poo'
'pono'
'pomohou_'
'pomocn'
'položen'
'politiků_'
'politikami_'
'politickém_'
'polit'
'polis'
'policejní_'
'pokrytí_'
'pointing_'
'podív'
'podrobnost'
'podporujeme_'
'podporoval'
'podlah'
'podezřel'
'podep'
'pocity_'
'pobí'
'pláže_'
'plyn_'
'plic'
'plate'
'plast'
'piv'
'pig'
'photo'
'perspectives_'
'perceived_'
'peně'
'pedi'
'peace'
'patnáct'
'parku_'
'parallel_'
'paradox'
'paliv'
'painful_'
'paci'
'očích_'
'oznam'
'ověřov'
'ovské_'
'ovladač'
'overr'
'overnight_'
'outr'
'outer'
'ouh'
'otá'
'oti'
'otevřený_'
'otevřená_'
'otevřel_'
'osvo'
'osud'
'ostra'
'osobám_'
'osit'
'osa'
'originally_'
'organic_'
'ord_'
'ora_'
'opustil'
'opravdov'
'operated_'
'opakova'
'onov'
'omyl'
'omluv'
'omi'
'olympi'
'olog'
'ohlá'
'odsu'
'odstraněn'
'odr'
'odpadu_'
'odep'
'odděl'
'odch'
'oct'
'ocn'
'ochránce_'
'ochotu_'
'occurr'
'občanská_'
'občanskoprávní'
'obyvatel'
'obklop'
'objevil'
'obdrží'
'obchodního_'
'nů'
'názvem_'
'nást'
'násled'
'náročn'
'národním_'
'nápad'
'ntá'
'nty_'
'ntu'
'ntly_'
'nském_'
'nsi'
'novo'
'nosi'
'nku_'
'nke'
'nika'
'nig'
'nge_'
'nezapom'
'neví'
'nevertheless_'
'nesporn'
'nesch'
'nepřátel'
'nepředstav'
'nemyslí'
'neme_'
'nema'
'nem_'
'nejt'
'nejpo'
'nejnovější_'
'negotiated_'
'negotiat'
'nedávných_'
'nedop'
'nebezpečný'
'ncy_'
'naš'
'nař'
'navzájem_'
'naviga'
'naut'
'nastol'
'napsal_'
'nale'
'nadvlád'
'mů_'
'městské_'
'mým'
'mírový'
'mírové_'
'mém_'
'médií_'
'mán'
'museum_'
'murder'
'munic'
'monument'
'moni'
'mole'
'modest_'
'mní'
'mmer'
'miz'
'mist'
'minist'
'mining_'
'minate_'
'mie_'
'meč'
'metabolit'
'mers_'
'mento'
'mechanic'
'measured_'
'masov'
'mann_'
'manažer'
'lování_'
'longe'
'logg'
'lodě_'
'lodged_'
'llo'
'livý'
'liqu'
'linu'
'lidského_'
'library_'
'liberalizaci_'
'liberaliz'
'liber'
'leté_'
'lei'
'lari'
'lands_'
'káz'
'kupující'
'kulturu_'
'kultura_'
'ktivní_'
'kter'
'krk'
'kritick'
'krajin'
'kořeny_'
'koč'
'kovn'
'koordinovan'
'konstatova'
'konferenční'
'konečného_'
'koncipov'
'koncem_'
'komunistick'
'komisařka_'
'kombin'
'kok_'
'kmen'
'kly_'
'king'
'kinetic'
'kill'
'kdykoli_'
'kategori'
'kapitána_'
'kapacit'
'kandid'
'kampaně_'
'journey_'
'jour'
'jointly_'
'jistý_'
'jisti'
'jejími_'
'jednoznačn'
'jednotný_'
'jednot'
'jednomu_'
'jde'
'jazyka_'
'jazyce_'
'jan'
'jam'
'jakosti_'
'jad'
'išt'
'izraelsko_'
'izolova'
'itě_'
'itelnost'
'itel'
'ital'
'isy_'
'ister'
'ismus_'
'isko_'
'ironi'
'ique'
'investoři_'
'into'
'inti'
'internetov'
'integrované'
'insulat'
'insufficient_'
'inso'
'insist'
'innost'
'initially_'
'ini_'
'infringe'
'inform'
'ined_'
'imported_'
'importantly_'
'implies_'
'impair'
'ilí'
'iky_'
'ignored_'
'iga'
'ients_'
'ideál'
'hání_'
'hv'
'hroz'
'hovoříme_'
'hova'
'homosexu'
'hna'
'hloup'
'hlasy_'
'hlasovali_'
'highlights_'
'highlight_'
'hide_'
'heri'
'hem'
'hedge_'
'heated_'
'hd'
'hazard'
'hardwar'
'hang'
'handful_'
'guess_'
'gt'
'grammatical_'
'grafické'
'god'
'gir'
'ghe'
'geneticky_'
'genc'
'garan'
'galeri'
'fyzické_'
'fut'
'funk'
'fun_'
'forth_'
'formul'
'formal'
'forgotten_'
'forests_'
'forem_'
'flag_'
'fix_'
'finish_'
'fingers_'
'finger_'
'fines'
'filling_'
'fib'
'fewer_'
'fest'
'federální_'
'fami'
'fairly_'
'eř'
'ezen'
'express'
'expos'
'exporters_'
'expo'
'exploitation_'
'expand_'
'excluded_'
'evropském_'
'even'
'etl'
'essentially_'
'ert_'
'erl'
'erie'
'eren'
'entail'
'ense'
'enjoyable_'
'energetic'
'encouraging_'
'ences_'
'elní'
'elit'
'elevat'
'elegant'
'ekonomi'
'eko'
'eit'
'ein'
'ego'
'eggs_'
'edu'
'ect_'
'ecký'
'ebo'
'dřív'
'dětem_'
'dávku_'
'dával'
'dáv'
'dv'
'druh'
'drop'
'drinking_'
'draž'
'dramaticky_'
'drah'
'dozvěděl'
'downtown_'
'dovoz'
'dotčené'
'dotčen'
'dosáhl_'
'dostávají_'
'doplňk'
'doplni'
'dopis'
'dolož'
'dohodou_'
'dohodl'
'dodávky_'
'dodržen'
'dodatečný'
'dobro'
'dlouhé'
'dlouhá_'
'dlouhodob'
'diversif'
'dite'
'distribuci_'
'distan'
'displayed_'
'diskusí_'
'disco'
'discard'
'disappear_'
'disabilities_'
'disab'
'diplom'
'ding'
'digitální_'
'diam'
'devote'
'deva'
'detail'
'desperate'
'deserve_'
'deník'
'demonstra'
'delší_'
'defeat_'
'deci'
'dalšímu_'
'cílen'
'cure_'
'ctiv'
'cross'
'critics_'
'criminals_'
'countryside_'
'contemp'
'conte'
'constitut'
'connect_'
'conformity_'
'confe'
'concepts_'
'concentrated_'
'comprises_'
'composition_'
'compl'
'comp'
'communism_'
'communi'
'commodity_'
'commit_'
'commen'
'comb'
'column_'
'collected_'
'coin'
'cod'
'ckou_'
'citizen_'
'circle_'
'cigaret'
'chvíle_'
'chief_'
'chceš_'
'charakter_'
'chaos_'
'chab'
'celo'
'cell_'
'cell'
'celek_'
'caution_'
'catering_'
'cate'
'captured_'
'břehu_'
'běl'
'but'
'buses_'
'burn_'
'budova'
'budoucích_'
'broj'
'bož'
'boxes_'
'bow'
'bov'
'bor'
'bon_'
'bold_'
'blin'
'bles_'
'biskup'
'birds_'
'bid_'
'bic'
'bezm'
'belongs_'
'behaviour_'
'bay_'
'bath'
'base'
'bankéři_'
'bankovních_'
'balí'
'balení_'
'bailiff_'
'backed_'
'ažen'
'aze'
'awar'
'ave'
'autonom'
'auc'
'aty_'
'attach'
'atmosféru_'
'atil'
'aten'
'assessed_'
'armád'
'argu'
'appr'
'appoint'
'ao'
'anniversary_'
'ank'
'animat'
'ange'
'analýz'
'ambitions_'
'alleg'
'alike_'
'aktivní'
'airports_'
'agency_'
'afghánsk'
'affl'
'adí'
'advances_'
'aduj'
'administer'
'adjust_'
'acu'
'actively_'
'achievement_'
'accountable_'
'accordingly_'
'accidents_'
'abb'
'abandoned_'
'Závěr'
'Zn'
'Zko'
'Zemi_'
'Zelen'
'William_'
'Wikimedia_'
'Wed'
'Wan'
'Wal'
'Všeobecn'
'Vyživovací_'
'VO_'
'VB'
'Ut'
'URL_'
'UL'
'Tře'
'Tun'
'Transp'
'Timo'
'Through_'
'Thr'
'Tchaj_'
'Tau'
'Tam_'
'Talk'
'THEMES_'
'THB_'
'TC'
'Systém_'
'Světov'
'Stre'
'Still_'
'Stalin_'
'Spojeného_'
'Speci'
'Soud_'
'Sorry_'
'Sor'
'Snad_'
'Slu'
'Slovinsk'
'Sko'
'Situace_'
'Sil'
'Scott'
'Schi'
'Rural_'
'Rodičovská_'
'Rio_'
'Reli'
'Regulations_'
'Railway_'
'Raf'
'Rac'
'RU'
'R3_'
'Příj'
'Připo'
'Především_'
'PŘIJALA_'
'PŘ'
'Price_'
'Power_'
'Post_'
'Porto_'
'Poh'
'Podpora_'
'Playground_'
'Piazza_'
'Panorama_'
'Pam'
'Pakt'
'Pad'
'Očekáv'
'Operation'
'Off'
'Oc'
'Obviously_'
'Obrá'
'Obje'
'OR_'
'Němci_'
'Nobel_'
'Ned'
'Nebo_'
'Near_'
'Nar'
'Naproti_'
'NP'
'Mü'
'Mubarak_'
'Mozilla_'
'Mou'
'Moo'
'Mohl'
'Mode'
'Minist'
'Medical_'
'Medic'
'Manuel_'
'Mandel'
'Mak'
'Maj'
'Mae'
'Long_'
'Literature_'
'Less'
'Lac'
'LU'
'LB'
'Kru'
'Kreml'
'Kosovu_'
'Kn'
'Klin'
'Kirk_'
'Kensington_'
'Ke_'
'Kanad'
'KT'
'KB_'
'Joe_'
'Jeruzalém'
'Jel'
'JA'
'Iraqi_'
'Imm'
'Hotspot_'
'Holl'
'Hizballáh'
'Hitler_'
'Hilton_'
'Hezbollah_'
'Herna_'
'Hello_'
'Hap'
'Hans'
'HL'
'Guine'
'Glasgow_'
'Gla'
'Gio'
'Gene'
'Friday_'
'Fran'
'Fourth_'
'Floren'
'Fig'
'Fie'
'Father_'
'FS'
'FOR_'
'Extra'
'Exten'
'Everything_'
'Euros'
'Elysées_'
'Ell'
'Eg'
'Edinburgh_'
'EZ'
'EPA'
'EFTA_'
'EA_'
'Due_'
'Di_'
'Dele'
'Deborah_'
'David'
'DEM_'
'Commons_'
'Chy'
'Chief_'
'Casa_'
'Camb'
'CU'
'CS'
'COMMUNITIES_'
'CHAPTER_'
'C2'
'Bělorusk'
'Bundes'
'Bude'
'Buc'
'Brun'
'Brown_'
'Brow'
'Boží'
'Blanc'
'Bis'
'Bath_'
'BU'
'Austrian_'
'Aud'
'Atlanti'
'Athens_'
'Anglo_'
'Alo'
'Ahoj_'
'Age_'
'Afriky_'
'Academy_'
'AT_'
'AKCPE_'
'AGE'
'1987_'
'172_'
'138_'
'116_'
'+'
') - _'
'" - _'
' {{_'
' )_'
' % '
'” (_'
'و'
'ь'
'о_'
'π'
'μ'
'žádám'
'žádn'
'živý'
'živé_'
'živoči'
'žit_'
'ženu_'
'železn'
'ždé_'
'ůjč'
'Ů_'
'šímu_'
'šílen'
'švédské'
'šku_'
'školství_'
'škol_'
'škodlivé'
'širokou_'
'říč'
'říkám_'
'řádn'
'řil_'
'ředitel_'
'ňován'
'ělen'
'čínských_'
'část'
'černé'
'čeká_'
'čehož_'
'čeho_'
'Či'
'Ček'
'ýva'
'úřadů_'
'úřad'
'účtů_'
'účtován'
'úvěrov'
'ústní_'
'úspěšn'
'úrovních_'
'úro'
'úp'
'úkor_'
'úder'
'ôte'
'íčk'
'ítk'
'íkem_'
'íka_'
'ída'
'â'
'áčk'
'ází_'
'áty_'
'átoru_'
'átní_'
'átn'
'Ústav'
'º'
'| '
'{_'
'zůstanou_'
'zřízení_'
'záznam'
'západní'
'základním_'
'zác'
'zvyšují_'
'zvan'
'zva'
'zrak'
'zpravodaje_'
'zpracováv'
'zpoždění_'
'zpomal'
'zones_'
'zobrazen'
'známo_'
'znevýhodněn'
'znepokojení_'
'značný_'
'zmíněné'
'zmínit_'
'zkušen'
'zklam'
'zjistil'
'zjednodušen'
'zeptat_'
'zená'
'zemřel_'
'zemř'
'zemědělské'
'zdravotních_'
'zbraň_'
'začína'
'zavádí_'
'zastoupení_'
'zapomněl'
'zamysle'
'zajímav'
'yšší'
'yč'
'ytn'
'ytek_'
'yon'
'ylo'
'yan'
'xu_'
'xon'
'xit'
'wski_'
'wri'
'worried_'
'wis'
'wind'
'wic'
'whenever_'
'weakness_'
'wash'
'vř'
'věrohodn'
'vědecký'
'výzvou_'
'vývojem_'
'výtah'
'výročí_'
'výkonn'
'výh'
'výchozí_'
'víra'
'vátn'
'vány_'
'vztahující_'
'vzt'
'vzniknou'
'vzestupu_'
'vyšetř'
'vyzývám_'
'vyznání_'
'vyzna'
'vytváře'
'vysvětlil'
'vystoupil'
'vyráběn'
'vypracová'
'vyplývající_'
'vypln'
'vynu'
'vymáhání_'
'vymáh'
'vymezení_'
'vyjm'
'vyjedna'
'vydal'
'vybudování_'
'vybran'
'vybral'
'vte'
'vstupní_'
'vské'
'vrá'
'vot'
'vosti_'
'volno'
'volatility_'
'vojenských_'
'vojensk'
'vocabulary_'
'vnitřn'
'vliv'
'vlasy_'
'vlastními_'
'vkladů_'
'vize_'
'visitors_'
'viditeln'
'veškerá_'
'veřejnou_'
'vezme'
'veri'
'vera'
'velmoc'
'vedl_'
'vděčn'
'valent'
'uží'
'uživatelům_'
'učiní_'
'uznat_'
'uznal'
'uzavře'
'uváděn'
'uvedl'
'uveden_'
'uveden'
'utt'
'usta'
'uspokoj'
'usn'
'uskutečňova'
'upevn'
'unu'
'unk'
'unemployed_'
'understandable_'
'underpin'
'ult_'
'ulen'
'uf'
'udělali_'
'udá'
'udržitelno'
'uchováv'
'ua_'
'třes'
'těn'
'týdn'
'twin_'
'tvar'
'tul'
'trvání_'
'trvá_'
'trvalý_'
'trou'
'trn'
'trium'
'trigger'
'trials_'
'tria'
'tren'
'treasur'
'transparentní_'
'transaction_'
'trail'
'trafficking_'
'tradičních_'
'toři_'
'toxicity_'
'toxi'
'tow'
'tour_'
'tough_'
'totali'
'tons'
'toli'
'toilet'
'tlum'
'tle_'
'tlakem_'
'tiš'
'tivně'
'tiskárn'
'tien'
'threatening_'
'thorough_'
'thirty_'
'thinks_'
'thin'
'therapy_'
'thank'
'testova'
'testimony_'
'tested_'
'terra'
'telně'
'televizní'
'telekomunika'
'telefon_'
'taxi_'
'tage'
'tabled_'
'sů_'
'síti_'
'světovém_'
'světem_'
'svr'
'svobodný'
'suverenit'
'surpluses_'
'sudden_'
'středo'
'stávají_'
'státním_'
'stárn'
'stva_'
'stuck_'
'stráv'
'strip'
'strategické_'
'strategi'
'strand'
'stored_'
'stops_'
'stisk'
'stimula'
'stačí_'
'stačit_'
'stavebn'
'stared_'
'stanov'
'standardi'
'stali_'
'stal'
'stakeholders_'
'stabiln'
'srovnateln'
'srbsk'
'spí'
'správný_'
'správnou_'
'spra'
'spr'
'spotřebitel'
'spon'
'spoléha'
'spolupracov'
'společném_'
'spojuj'
'splněn'
'splnil'
'spla'
'specialt'
'specialist'
'spare_'
'spac'
'soutěži_'
'soustřed'
'sousedství_'
'sousední'
'sounds_'
'soubo'
'somewhere_'
'solving_'
'solely_'
'sněn'
'snadn'
'směn'
'sma'
'službě_'
'složit'
'složen'
'slož'
'slow'
'slouč'
'slogan'
'skými_'
'skému_'
'skutečné'
'sklon'
'sklo'
'skandál'
'situací_'
'sin_'
'simul'
'similarly_'
'silách_'
'side'
'sib'
'shrnu'
'shock_'
'shipping_'
'shipment_'
'shield'
'shal'
'seš'
'sexuální'
'semen'
'sele'
'sej'
'sei'
'seeks_'
'secular_'
'secondary_'
'seat'
'season_'
'sdělit_'
'sdíl'
'sdruž'
'score_'
'schvalov'
'schi'
'schemes_'
'sana'
'ržel'
'rý_'
'rád'
'rychlé'
'rva'
'rush'
'ruj'
'rozvíjet_'
'rozvíje'
'rozvr'
'rozvojový'
'rozvodu_'
'rozumě'
'rozt'
'rozpočtových_'
'rozpor'
'rozmanitost_'
'rozkl'
'rozdr'
'rovná_'
'rovnová'
'rovnocenn'
'rovat_'
'rosto'
'rostlin'
'rostl'
'ror'
'rodičovské_'
'robe'
'rní'
'rizikem_'
'rival'
'rie_'
'ridi'
'rica'
'rha'
'rezervaci_'
'revize_'
'revised_'
'revealed_'
'rete'
'resum'
'restaurace_'
'respektovat_'
'residue'
'repr'
'repe'
'reli'
'registrac'
'regain'
'refresh'
'reformě_'
'recons'
'recognizes_'
'realize_'
'raž'
'raises_'
'rah'
'radost_'
'radost'
'qui_'
'původním_'
'působ'
'půjde_'
'půjd'
'příslušnosti_'
'přípravkem_'
'přída'
'přál'
'přizpůsobit_'
'přitažliv'
'přispívají_'
'přijatý'
'přid'
'přezkoumá'
'převážně_'
'přesné_'
'přeruš'
'překážk'
'překlád'
'představil'
'představen'
'předsedou_'
'písemné_'
'pyr'
'puri'
'purchasing_'
'publici'
'pu_'
'psycho'
'pse'
'průměrný'
'průhledn'
'průbě'
'prvkem_'
'prošl'
'prováz'
'prováděcí_'
'provádě'
'protokol'
'protip'
'prostředek_'
'prosté_'
'prospero'
'propr'
'propose_'
'propa'
'promising_'
'prokl'
'projev_'
'prohlíže'
'prohléd'
'proh'
'profil'
'profesionál'
'profes'
'prodáva'
'prodeji_'
'proces'
'procentní'
'problematic'
'priest'
'presenting_'
'pravidlo_'
'pravděpodobnost_'
'pracoval'
'poškodi'
'pořad'
'počíta'
'pozoroval'
'poznámky_'
'pozměňovacích_'
'pozměn'
'povolání_'
'považujeme_'
'považova'
'povahu_'
'použijí_'
'potřebných_'
'postihuj'
'posoudi'
'posil'
'ports_'
'porozumění_'
'popu'
'poplatky_'
'poloviny_'
'poll'
'politickými_'
'pokoj'
'pojmenov'
'pohod'
'podě'
'podílel'
'podstaty_'
'podstat'
'podobným'
'podnikům_'
'podnikatelsk'
'podnikatel'
'podnika'
'podnik'
'podléha'
'pocho'
'plyne'
'pli'
'plea'
'plavidl'
'plastic_'
'plane_'
'ph_'
'petrol'
'pesticidů_'
'periphery_'
'perception_'
'pav'
'patro'
'patri'
'paragraphs_'
'papírů_'
'panem_'
'paměť_'
'paliva_'
'pair'
'pack'
'ožen'
'ozo'
'označov'
'označil'
'ověření_'
'ověřen'
'ová'
'ovláda'
'ovlivnit_'
'overwhelming_'
'ovatel'
'outline'
'outcomes_'
'otř'
'oth'
'otevíra'
'ote_'
'osvět'
'oslaben'
'orin'
'oriented_'
'optimal'
'oppo'
'opačn'
'oná'
'onem_'
'omen'
'ology_'
'okamži'
'oji'
'oid'
'oho'
'odstra'
'odráž'
'odpovídajícím_'
'odložen'
'odkazy_'
'odborníků_'
'occasional'
'občan'
'obstacles_'
'obrázek_'
'obrátil_'
'obrá'
'obilovin'
'obdrže'
'oasis_'
'něčeho_'
'německ'
'něm'
'nízké_'
'nímž_'
'názv'
'nátlak'
'násiln'
'nálad'
'nákupu_'
'náhl'
'náct_'
'náboženských_'
'nym'
'nutri'
'nutný'
'nutnosti_'
'ntion'
'nth'
'nstr'
'notář'
'ností_'
'normá'
'nonetheless_'
'node'
'nitr'
'nist'
'ning'
'neúspěch'
'nezna'
'nezap'
'nevěděl'
'nevyhnuteln'
'nevládní'
'neup'
'nestá'
'nestan'
'nestalo_'
'nesm'
'neshod'
'nervo'
'nera'
'nepříznivý'
'nepřím'
'nepoužív'
'nemá'
'nemožné_'
'neighbors_'
'nedošlo_'
'nedaleko_'
'necháv'
'necessarily_'
'neboli_'
'neat'
'nci_'
'nce'
'nazva'
'naučil'
'nata'
'nasazení_'
'narůstající'
'naproti_'
'nainstal'
'nadřazen'
'nade'
'nabídne_'
'měřen'
'měrn'
'měno'
'měnit_'
'mýl'
'mírov'
'musela_'
'mur'
'mt'
'mount'
'moudr'
'modules_'
'moderniz'
'mobilit'
'mlč'
'mlh'
'mladí_'
'miss_'
'misi_'
'minuty_'
'ministra_'
'ministr'
'mill'
'mezní'
'mexick'
'metro'
'meters_'
'meri'
'menšin_'
'medicine_'
'mediat'
'measur'
'mbo'
'mbi'
'matk'
'master'
'masa_'
'marke'
'mandát'
'managers_'
'mana'
'malé'
'mali'
'make'
'magic_'
'magi'
'mac'
'lékařské'
'lyží_'
'luggage_'
'load'
'lno'
'lling_'
'liza'
'liturgi'
'litr'
'listic'
'liquid_'
'lings_'
'limp'
'lights_'
'lift'
'lidský'
'lidsk'
'liberalization_'
'liberalisation_'
'lg'
'letošního_'
'letectví_'
'lete_'
'lend'
'lej'
'laskav'
'lant'
'kými_'
'kál'
'kula'
'kuchyni_'
'krevní'
'kový_'
'kouz'
'koupeln'
'kos'
'koru'
'konzum'
'kontrol'
'konn'
'konf'
'konečný'
'kompromis_'
'komplik'
'komor'
'komodit'
'komisař'
'kombinovan'
'kombinace_'
'koli'
'kolektivní'
'kní'
'knut'
'klima_'
'klidn'
'klauzul'
'klam'
'kladou_'
'kilometre'
'kel'
'kdybychom_'
'kdekoli'
'kate'
'katastrofy_'
'katal'
'kapacitu_'
'kal_'
'kabin'
'jším_'
'jícími_'
'jícího_'
'justification_'
'jské_'
'joy'
'journalist'
'jmenuje_'
'jižní'
'jistou_'
'jil'
'jer'
'jednotka_'
'jednotk'
'jedinc'
'jal'
'jakých_'
'jakém_'
'jaderného_'
'jadern'
'jack'
'jab'
'ičk'
'iče_'
'ivně'
'ives_'
'itá'
'itelé_'
'itelná_'
'itat'
'ista'
'isolation_'
'ismu_'
'isku'
'iro'
'inženýr'
'invit'
'investoval'
'investi'
'inve'
'interrupt'
'interní'
'internetových_'
'interim_'
'intenzi'
'inteligenc'
'intelektuální_'
'institucionální'
'instituci'
'inspir'
'insolven'
'insk'
'injured_'
'injekc'
'indicators_'
'incident'
'incentive_'
'inca'
'impression_'
'impli'
'impl'
'imperi'
'impe'
'iluz'
'ilia'
'ikov'
'ika'
'ign'
'igen'
'ifi'
'ideological_'
'icích_'
'icon_'
'ice'
'ias_'
'iage'
'hůř'
'hří'
'human'
'huj'
'hráči_'
'hrál'
'hru_'
'hrozba_'
'hranicích_'
'hrají_'
'hospodářsk'
'horse_'
'horn'
'honest_'
'home'
'hodno'
'hoc_'
'hnu'
'hne_'
'hmotnost'
'hlášen'
'hledá'
'hlava'
'hlasů_'
'hlasem_'
'historii_'
'highway_'
'hic_'
'hezk'
'hesl'
'helpfull_'
'hei'
'hat_'
'hars'
'harmonizova'
'harm'
'hamm'
'ham'
'hai'
'hadn_'
'gus'
'gun_'
'grasp_'
'graduate_'
'gradi'
'gourmet_'
'ghts_'
'ggl'
'geographic'
'genetic_'
'generální'
'generaci_'
'gear'
'gang'
'fúz'
'frighten'
'frequent_'
'freely_'
'foster_'
'font'
'fon'
'floppy_'
'fleet_'
'firstly_'
'firmly_'
'filed_'
'fet'
'fax_'
'fatal'
'fails_'
'eš'
'eře'
'ey'
'extrémn'
'experiment_'
'exert'
'executive_'
'exchange'
'exacerbate'
'evropskými_'
'evol'
'everybody_'
'eve'
'etnický'
'etick'
'eth_'
'eru_'
'err'
'erne'
'erin'
'epš'
'epizod'
'enti_'
'entering_'
'enemies_'
'emul'
'empower'
'emergenc'
'embo'
'embark'
'emba'
'eman'
'electric_'
'ekologick'
'eim'
'efektivněj'
'edly_'
'ediat'
'economist_'
'ecological_'
'ecia'
'eci'
'eating_'
'ea_'
'důvěryhodn'
'důchod'
'dřevěn'
'dělá'
'děli'
'dějiny_'
'dědictví_'
'dívk'
'dít'
'dír'
'dálnic'
'dá'
'dveř'
'dvacet_'
'duševního_'
'dream'
'draw'
'draft'
'dra_'
'dozor'
'dovozy_'
'dovoleno'
'dova'
'doubts_'
'double'
'dosáh'
'dostupná_'
'dostupnosti_'
'dosti'
'dostatečný'
'dostanou_'
'dorm'
'doprovod'
'dopravě_'
'doporuč'
'domovsk'
'domnívá_'
'dominant_'
'dokaz'
'dohod'
'dohl'
'dodáva'
'dodržovat_'
'dobrým_'
'dlužníka_'
'dlouhodobě_'
'dlouhodobém_'
'dles'
'divide_'
'diverzifik'
'divadl'
'dition'
'distr'
'dispa'
'dish'
'discover'
'discou'
'discipline_'
'director'
'directions_'
'dim'
'dila_'
'differ_'
'diff'
'dicat'
'diagnos'
'developers_'
'determining_'
'determin'
'dete_'
'desít'
'destinations_'
'deserves_'
'derivative'
'denatur'
'demokratický_'
'demokratické'
'deme'
'delete_'
'dekád'
'definitiv'
'defi'
'deepen'
'decrease_'
'dec'
'debi'
'dde'
'day'
'dare'
'daný_'
'dans_'
'damages_'
'dable_'
'církve_'
'cílům_'
'custom_'
'cun'
'cum'
'cult'
'ctví_'
'cting_'
'council'
'cott'
'cots_'
'corrupt_'
'corridors_'
'copi'
'cooperate_'
'cook'
'contributes_'
'constituen'
'consistency_'
'considerably_'
'confusion_'
'confirm'
'configur'
'confi'
'condemn'
'concentrate_'
'compell'
'commodities_'
'combine_'
'college_'
'collect_'
'collaboration_'
'coherent_'
'codes_'
'coast'
'closing_'
'classic_'
'classes_'
'civi'
'circulation_'
'circula'
'circu'
'chuť_'
'chut'
'chudobou_'
'chic'
'chem'
'charm_'
'chain_'
'cest_'
'certifikát'
'centrálních_'
'cata'
'cant'
'cali'
'bývá_'
'bývalé'
'báz'
'byte'
'buz'
'buying_'
'bureaucra'
'buně'
'budově_'
'brothers_'
'brief'
'boys_'
'bowl'
'bojoval'
'boats_'
'boast'
'bloody_'
'biofuels_'
'bilaterální'
'bilance_'
'bien_'
'bian_'
'bezvý'
'bezpo'
'bezplatn'
'bezpečný'
'bets_'
'bet_'
'bav'
'bankruptcy_'
'bankrot'
'bankovní'
'bankers_'
'balíčk'
'bale'
'aři'
'authors_'
'atuj'
'attribute'
'ats_'
'atribut'
'atic_'
'atel_'
'aster'
'assign'
'aspekte'
'asl'
'asistent'
'arrest_'
'arranged_'
'armády_'
'arit'
'arising_'
'aren'
'archa'
'anz'
'antivirov'
'announcement_'
'angry_'
'alize_'
'alism_'
'algorit'
'ald'
'alc'
'aktu'
'akciov'
'akcie_'
'ais'
'aire_'
'ail'
'agentur'
'agents_'
'advocates_'
'admit_'
'administrativ'
'administrat'
'adjustments_'
'acích_'
'acquisition_'
'acknowledge_'
'accounted_'
'accommodations_'
'accessed_'
'abl'
'``_'
'Zí'
'Zásad'
'Zpr'
'Zm'
'Zach'
'Zab'
'ZN'
'Yar'
'XP_'
'Wired_'
'Where'
'Wh'
'Wen'
'Was_'
'Was'
'WHO_'
'Věř'
'Vít'
'Vod'
'Vláda_'
'Vit'
'Vas'
'VR'
'User'
'Uh'
'UT'
'UEN_'
'UB'
'Tvr'
'Tour'
'Together_'
'Tito_'
'Teh'
'Taková_'
'TVs_'
'Sí'
'Sz'
'Swi'
'Success'
'Studie_'
'Ster'
'Správn'
'Specific'
'Sol_'
'Smlouv'
'Shu'
'Sher'
'Senate_'
'Sei'
'Sed'
'Secondly_'
'Scr'
'Schr'
'Schengen_'
'Sche'
'Sarah_'
'Sam_'
'SQL_'
'SL_'
'SF'
'SEC'
'Ráda_'
'Ryan_'
'Rub'
'Roy'
'Rich'
'Reso'
'Residen'
'Require'
'Relati'
'Region'
'Real_'
'Rather_'
'Ran'
'Radisson_'
'RES'
'QU'
'Případ'
'Putin'
'Pul'
'Procesní_'
'Princip'
'PricewaterhouseCoopers_'
'Potom_'
'Politick'
'Pocket_'
'Pet'
'Peri'
'Peking'
'Pana'
'Pai'
'Pact_'
'Pack'
'PS_'
'Oz'
'Opr'
'Odškodnění_'
'Oct_'
'Ocean_'
'Oby'
'Ober'
'Někdy_'
'Nou'
'Norway_'
'None_'
'Niko'
'Nie'
'Nemůž'
'Nejs'
'Near'
'Naši_'
'Naz'
'Natural'
'NU'
'Mělo_'
'Máš_'
'Musí'
'Move'
'Mountain'
'Modi'
'Mluv'
'Mit'
'Missi'
'Miss_'
'Mira'
'Med'
'Master_'
'Mary_'
'Mark_'
'Marb'
'Malo'
'Main'
'Macedonia_'
'MP_'
'Lí'
'Léč'
'Lá'
'Londýna_'
'Log'
'Lod'
'Litv'
'Lim'
'Lig'
'Lic'
'Liby'
'Leh'
'Leb'
'Latvia_'
'Latinské_'
'Lamb'
'Lab'
'Kle'
'Keynes'
'Ker'
'Kel'
'KAPITOLA_'
'Jordan_'
'Jinak_'
'Jednot'
'Jediný'
'Jar'
'Jaký_'
'Jac'
'Islands_'
'Irák_'
'Invalid_'
'Introduction_'
'Instrument_'
'Institut'
'Inform'
'Industr'
'Indo'
'Imag'
'IDE_'
'House'
'Hongkong'
'Hlasoval_'
'Help_'
'Hei'
'Hau'
'Harri'
'HER'
'Governments_'
'Gon'
'Georgi'
'Gates_'
'Gall'
'Gala'
'Further_'
'Fried'
'Francouz'
'Four_'
'Fort'
'Ford_'
'Fol'
'Fis'
'Find_'
'Federální'
'Fas'
'Exe'
'Esta'
'Enc'
'Ed_'
'EVROPSKÝCH_'
'EG'
'Dí'
'Dánsko_'
'Dánsk'
'Dura'
'Dub'
'Dru'
'Download_'
'Dohody_'
'Disk'
'Disc'
'Din'
'Die'
'Dic'
'Dej'
'Defini'
'Def'
'Dax_'
'Data'
'Das_'
'Darfur_'
'DVD'
'DHCP_'
'DEC'
'Criminal_'
'Creative_'
'Což'
'Could_'
'Cost'
'Convenient'
'Contract'
'Cont'
'Consumer_'
'Conditions_'
'Competiti'
'College_'
'Cle'
'Chad_'
'Carol'
'Cameron_'
'Call_'
'CZ_'
'Buil'
'Budget'
'Boutique_'
'Bou'
'Bos'
'Bod'
'Blízk'
'Bernanke_'
'Berlín'
'Be_'
'Bau'
'Base'
'Bajor'
'Ačkoli_'
'Asi_'
'Arts_'
'Ard'
'Annual_'
'Alternativní_'
'Alm'
'Afri'
'Adria'
'Additional_'
'ATI'
'? '
'=_'
';&_'
': …_'
'90'
'88'
'73'
'66'
'59'
'37'
'236'
'220'
'1973_'
'185'
'110_'
'001'
'.. _'
'. ... _'
'. ({{_'
''', _'
' €'
' < _'
' ,_'
' " _'
'��'
'” – _'
'ف_'
'ض_'
'د_'
'، _'
'ν'
'žádném_'
'žádal'
'žně_'
'žiteln'
'žené_'
'žená'
'žalované'
'Žádost_'
'Ži'
'Ženev'
'ůvodněn'
'ůd'
'štá'
'šova'
'Španělsku_'
'řít_'
'řím'
'řství'
'řic'
'řešen'
'řečn'
'řeč'
'řecké_'
'Řekn'
'ı'
'ěř'
'ětsk'
'ěti'
'ěné'
'ěn'
'ějšími_'
'ěc'
'čínská_'
'čín'
'číh'
'částe'
'čár'
'čá'
'čte'
'čními_'
'článků_'
'čistý'
'čestn'
'čerpá'
'časové_'
'časem_'
'čase_'
'čaj'
'Čas_'
'ýlk'
'úředn'
'účinná_'
'účel'
'účastn'
'úvěrových_'
'úvah'
'ústup'
'úspěchů_'
'úspěchy_'
'úspěchem_'
'úsporný'
'úplno'
'úpln'
'úm'
'úloze_'
'úhrn'
'ño_'
'íst_'
'írat_'
'éra_'
'éni'
'ça'
'äl'
'ářský'
'áč'
'átoři_'
'átkem_'
'ást'
'ání'
'ánu_'
'ánní'
'ák_'
'ádá_'
'áci_'
'Účetní_'
'Å'
'§ _'
'zřeteln'
'zřejm'
'zúčastni'
'závě'
'závažný'
'zátěže_'
'zásadu_'
'záruk'
'základními_'
'základem_'
'zvýšil_'
'zvýraz'
'zvykl'
'zvyk'
'zvukov'
'zvládnout_'
'ztrátu_'
'zrychl'
'způsobů_'
'způsobují_'
'způsobené_'
'zpravodajka_'
'zován'
'zou'
'zní'
'známka_'
'znam'
'změnila_'
'zmizel'
'zločin'
'zl_'
'zkum'
'zkrát'
'zkoumal'
'zhodnocení_'
'zemědělskou_'
'zdůraznil_'
'zdůraz'
'zbytku_'
'zbaven'
'začleněn'
'zava'
'zaujmout_'
'zaujal'
'zatížen'
'zastánci_'
'zastavení_'
'zaslán'
'zasl'
'zase'
'zapříčin'
'zapojil'
'zamítnut'
'zajíma'
'zachováv'
'zabil'
'zabezpečit_'
'yšlen'
'yto'
'ysi'
'xia'
'writers_'
'works'
'word'
'witness_'
'wish'
'winner'
'wild_'
'wild'
'whis'
'welcomed_'
'wel'
'way'
'wa_'
'věřící'
'větr'
'věl'
'vědě_'
'vč'
'význa'
'výzkumný'
'výrobc'
'výrazné'
'výměnu_'
'výkonnosti_'
'výhod_'
'východ'
'výbu'
'výbore'
'výb'
'víře_'
'vítá'
'vír'
'vín'
'vážen'
'válkou_'
'váh'
'vzájemné'
'vztah'
'vzpomín'
'vzduch'
'vzb'
'vzala_'
'vyšších_'
'vyváže'
'vyvinul'
'využit'
'využila_'
'vytvořila_'
'vytvořil_'
'vytrval'
'vysokým_'
'vysokoškolsk'
'vyslal'
'vypořád'
'vymysle'
'vykonat_'
'vyjednáva'
'vyhovuj'
'vyhlídk'
'vyhla'
'vydě'
'vydává'
'vydán'
'vydan'
'vybavené_'
'vst'
'vrchol'
'vozidlo_'
'volný_'
'vojáků_'
'voj'
'vodí'
'voca'
'vno'
'vláken_'
'vládám_'
'vládne_'
'vlád'
'vlasů_'
'vku'
'violations_'
'violation_'
'viděla_'
'vešker'
'vesmír'
'verify'
'veness_'
'venc'
'vedlejší_'
'vaze'
'varied_'
'valy_'
'valo_'
'vaccine'
'vable_'
'užíva'
'uživateli_'
'uštěn'
'učil'
'uzavřen'
'uzavírá'
'uza'
'uvedená_'
'uvažovat_'
'uu'
'utk'
'utic'
'uta_'
'ustav'
'ustanoveními_'
'uskuteční_'
'usilují'
'usiluje_'
'urn'
'upír'
'upu'
'upozornění_'
'upozor'
'upit'
'unrea'
'unifi'
'undermining_'
'underlying_'
'unbe'
'unb'
'umístění_'
'umožnil'
'umo'
'ulá'
'ulož'
'ully_'
'ukázat_'
'ukázaly_'
'ukončil'
'ukládá'
'uk_'
'ujistil'
'uin'
'uhra'
'uho'
'uff'
'udělá'
'udržovat_'
'udržova'
'udrž'
'ube'
'ub_'
'uat'
'tříd_'
'třetího_'
'třemi_'
'těš'
'těstí_'
'týdnech_'
'tématem_'
'twe'
'tváře_'
'tus_'
'ture'
'tube'
'tting_'
'tter_'
'tržn'
'très_'
'trvalé_'
'trouble'
'tries_'
'tric'
'travelers_'
'trav'
'trat'
'transmit'
'transformace_'
'transakce_'
'tram'
'tract'
'tower'
'tolerance_'
'tle'
'tlačítk'
'tiskov'
'ting'
'timber_'
'tics_'
'thrown_'
'throw_'
'throat_'
'threaten_'
'thread'
'thou'
'thoroughly_'
'tečn'
'textil'
'terror_'
'teroristick'
'tendenc'
'temporarily_'
'teln'
'televize_'
'tele_'
'techniky_'
'technik'
'teaching_'
'teacher_'
'taste'
'tas'
'targeting_'
'tan_'
'takzvan'
'take'
'tailor'
'tail_'
'sídl'
'sér'
'symbols_'
'sword'
'světle_'
'svědky_'
'svoje_'
'surovin_'
'suprem'
'supplied_'
'supplement'
'summ'
'sue'
'substantive_'
'submission_'
'subm'
'středomořsk'
'stížnost'
'stálé'
'stáhl'
'styl_'
'stup'
'ström'
'struck_'
'strojů_'
'strm'
'string'
'striking_'
'stresse'
'stres'
'stranick'
'stimulate_'
'stimul'
'steri'
'steer'
'stačil'
'staví_'
'stavb'
'statk'
'stat'
'stam'
'stadiu'
'ssy_'
'srozumiteln'
'srdeční'
'správě_'
'správa_'
'spouště'
'sportu_'
'sport'
'spoluprac'
'spolufinancov'
'společnostem_'
'spok'
'spojov'
'spojence'
'spekula'
'specifications_'
'specialized_'
'spalov'
'současném_'
'soustředit_'
'somebody_'
'solved_'
'soli'
'solarium_'
'sod'
'socialistick'
'soci'
'sněmovn'
'snídaně_'
'snažili_'
'směnný'
'smooth'
'smluvní'
'slíb'
'slope'
'sleduje_'
'sledov'
'slavn'
'slabo'
'sky'
'skvělé_'
'skupině_'
'skul'
'skladov'
'simplified_'
'simpl'
'sili'
'signature'
'signali'
'shromažďov'
'shout'
'shop_'
'shody_'
'shifting_'
'shell_'
'shame'
'seminars_'
'sem'
'second'
'sdělil'
'sděl'
'sdílet_'
'sdílen'
'scream'
'scház'
'schválené'
'schools_'
'scan'
'sazbá'
'sankce_'
'salaries_'
'safer_'
'sacred_'
'různo'
'růst'
'rš'
'ré_'
'rysy_'
'ryby_'
'ryb'
'rum_'
'rulers_'
'rud'
'rsi'
'rozšířené_'
'rozpo'
'rozdíln'
'rozd'
'row'
'routine'
'round'
'román'
'rodn'
'roam'
'rná'
'rno'
'rmo'
'rm_'
'riv'
'rish'
'ric_'
'rian'
'rhetoric_'
'reálná_'
'reward'
'revolt'
'rev'
'restrukturalizaci_'
'restricted_'
'respect'
'reservations_'
'republikou_'
'replac'
'repeat_'
'renowned_'
'rena'
'removing_'
'relia'
'releas'
'relaxed_'
'relaxation_'
'rekord'
'reins'
'refusal_'
'refunds_'
'refle'
'referring_'
'referenční_'
'ref'
'reduk'
'red'
'recruit'
'recovered_'
'reconstruct'
'receipt_'
'rebu'
'reassur'
'reas'
'realized_'
'realitu_'
'rca'
'rau'
'rase'
'rans'
'rani'
'raketov'
'rage_'
'radio'
'radikáln'
'racis'
'racion'
'quir'
'quie'
'quanti'
'půjčov'
'půdu_'
'příštího_'
'příš'
'přístupem_'
'příspěvku_'
'příslušnými_'
'příslušník'
'přírodní'
'přímých_'
'přivíta'
'přistoup'
'přisl'
'připomína'
'připomněl'
'připom'
'přinesla_'
'přijme_'
'přijato_'
'přijat'
'přij'
'přichází_'
'přeží'
'převa'
'přesvědčiv'
'přelo'
'překážek_'
'překvap'
'přejí'
'přehráv'
'předpis_'
'přední_'
'předloženy_'
'předkládá'
'předchozího_'
'předběžné_'
'přebír'
'přebytk'
'přeb'
'písmen'
'písemnost_'
'pí_'
'puzzle'
'psa'
'prům'
'prémi'
'právy_'
'pružnost'
'pružn'
'prozkouma'
'provádějí_'
'provin'
'proven_'
'prostu'
'prosad'
'propojení_'
'pronásledov'
'promoted_'
'projednáva'
'prog'
'profound_'
'profesor'
'produktivní_'
'prodlouž'
'procurement_'
'prochází'
'procesů_'
'proceed_'
'probl'
'pris'
'printing_'
'printer_'
'prim'
'presti'
'presidents_'
'preside'
'predict_'
'predi'
'precise_'
'preci'
'preced'
'prec'
'pravým_'
'pravděpodobn'
'požadovaný'
'počasí_'
'poznamena'
'pozměňovací'
'pozdější'
'povědomí_'
'používa'
'použitý'
'pouč'
'pound'
'potvrdit_'
'potravin'
'potka'
'posv'
'postupné'
'poskytn'
'posiluje_'
'pose'
'porušuj'
'porovn'
'poradc'
'popla'
'pomohl_'
'polské_'
'položka_'
'položit_'
'polov'
'polici'
'pokročil'
'pokračující_'
'pokoušel'
'pokojn'
'poison'
'podřízen'
'podáva'
'podstatné_'
'podpořila_'
'podpořil'
'podo'
'podniknout_'
'podmínk'
'pode'
'pocit'
'pochopil'
'pobřežní'
'pnu'
'pm_'
'plynoucí_'
'plodin_'
'plné'
'planetu_'
'pis_'
'physic'
'phobi'
'pevno'
'perspektivy_'
'personál'
'personal'
'pera'
'penzi'
'pens'
'pekt'
'peda'
'pay'
'patřil'
'pattern_'
'partneři_'
'partial_'
'památk'
'palác'
'palm'
'palestinsk'
'palace_'
'oři'
'očí'
'očt'
'očima_'
'označování_'
'oz_'
'ovému_'
'ovu_'
'ovna'
'overlook'
'ovateln'
'ovacích_'
'ours_'
'oucí'
'oub'
'otřes'
'otázkami_'
'otu_'
'otevřeno'
'otevírá'
'ostře'
'osp'
'osobnost'
'osm_'
'oslabi'
'osad'
'oris'
'orientovan'
'organizované'
'organizacemi_'
'organised_'
'organ_'
'opu'
'oprávněný'
'opozi'
'openness_'
'ope'
'opakovan'
'onč'
'omezený_'
'okolo_'
'ohrom'
'ogi'
'oficiálně_'
'officers_'
'oděv'
'odu_'
'odstavec_'
'odpovědn'
'odpor'
'odpoledne_'
'odpo'
'odmítnut'
'odliš'
'odhalen'
'ocean_'
'occasions_'
'oběh'
'obý'
'obyvatelé_'
'obvyklé'
'obst'
'observe'
'obsahují_'
'obsahem_'
'obrovským'
'obrovské'
'obnovil'
'obnovení_'
'obi'
'oat'
'některý_'
'někde_'
'nést_'
'následovat_'
'následek_'
'náročný'
'národ_'
'nár'
'nákupní'
'nákup_'
'nákup'
'náhradní_'
'náhodn'
'nád'
'nutrition_'
'nter_'
'novinář'
'noticed_'
'nota'
'norms_'
'nominální'
'noh'
'noble_'
'nish'
'nil'
'ngs'
'neúč'
'nezávislé_'
'nezbytně_'
'nezb'
'nezajím'
'nezab'
'nevím_'
'nevyřeš'
'neuro'
'nesmysl'
'nesk'
'nerovnováh'
'nerea'
'nepřátelsk'
'nepřetržitě_'
'nepr'
'nepor'
'nepodl'
'neo_'
'nemáme_'
'nemovitostí_'
'nemohu_'
'nekonečn'
'nejh'
'nejenže_'
'nejchudší_'
'nejbližší_'
'neighbours_'
'neighbor'
'nei'
'negativ'
'nedílnou_'
'nebyli_'
'nebu'
'nds'
'nding_'
'nder_'
'ncem'
'nberg'
'navý'
'navrá'
'navrhuj'
'navrhované_'
'navrhov'
'navigation_'
'nati'
'nat_'
'naráž'
'napomoci_'
'naléhavý'
'naléhavo'
'naléha'
'nakaž'
'nabíd'
'naby'
'mříž'
'městsk'
'měnu_'
'mív'
'mít'
'myslíte_'
'myslel_'
'mys'
'murder_'
'mořsk'
'moz'
'mount_'
'mortgage_'
'morali'
'monopoly_'
'monet'
'mon_'
'modification'
'mocensk'
'množ'
'mni'
'mluvil_'
'minors_'
'minimálně_'
'minim'
'minc'
'miluj'
'militant'
'miliardu_'
'mili'
'midnight_'
'meč_'
'metoda_'
'meter_'
'mete'
'metal_'
'meets_'
'meaningful_'
'mean'
'mble'
'maz'
'matick'
'massage_'
'maso_'
'margin_'
'mar_'
'maje'
'maintain'
'magneti'
'magazine_'
'mad_'
'lň'
'lč'
'líže'
'léče'
'léčbě_'
'lékař'
'lá_'
'lyt'
'luž'
'lusion'
'lud'
'logistic'
'locations_'
'loan_'
'llo_'
'liz'
'live'
'lighte'
'life'
'lidov'
'licens'
'libovoln'
'liberalism'
'liation_'
'liability_'
'levic'
'leva'
'letov'
'letadla_'
'ledov'
'lecture'
'lb'
'lays_'
'lang'
'lal'
'ků'
'křehk'
'kání_'
'kám'
'kyselin'
'kvót_'
'kupředu_'
'které'
'kt_'
'krásné'
'králov'
'kru'
'krok'
'kovat_'
'kouření_'
'kout'
'kontrolní'
'kontinentu_'
'kontaktu_'
'konstrukce_'
'konfliktů_'
'konfigura'
'koncept'
'kona'
'komunit_'
'komunikaci_'
'komunikace_'
'komu'
'komfort'
'komentář'
'know'
'knout_'
'knihov'
'klan'
'kis'
'keyboard_'
'kd'
'kardi'
'kapitán'
'kanceláře_'
'kamarád'
'kac'
'jídla_'
'jur'
'jt'
'jov'
'jnásob'
'jmenovit'
'jmenovan'
'jk'
'jet'
'jednotlivců_'
'jednalo_'
'jedin'
'jakéhokoli_'
'jakkoli_'
'izova'
'izi'
'izace_'
'ivity_'
'ively_'
'itu'
'italské'
'isi'
'iop'
'iona'
'invites_'
'investing_'
'introduc'
'interpreted_'
'intern'
'interinstitucionální_'
'interfere'
'intenzivní'
'intensity_'
'institute'
'institucemi_'
'instant_'
'instalovat_'
'install'
'inspired_'
'inspector'
'inspect'
'input_'
'innovat'
'iniciativa_'
'inhabitants_'
'ingu'
'infrastruktur'
'infection'
'induce'
'individuáln'
'individually_'
'individuali'
'indicati'
'incapable_'
'inadequate_'
'impo'
'implement'
'immo'
'imme'
'imbalances_'
'imb'
'ille'
'ilit'
'iki'
'ije'
'ified_'
'iew_'
'idn'
'ideologi'
'identit'
'idad'
'ica'
'iat'
'hře'
'hř'
'hč'
'husband_'
'hunter'
'hunt'
'hub'
'hs_'
'hotov'
'hotelové_'
'horsk'
'horri'
'hork'
'hore'
'hope'
'hone'
'hom'
'hlubší_'
'hlubok'
'hlavě_'
'high'
'harmoniz'
'harbour_'
'habita'
'gát'
'guestrooms_'
'graph_'
'grade_'
'governed_'
'globalisation_'
'gio'
'gesture'
'geopolitical_'
'geografick'
'generous_'
'generations_'
'generat'
'gene'
'gation_'
'gant'
'gan_'
'fí'
'fungují_'
'funded_'
'fuel'
'fts_'
'frie'
'francouzského_'
'foto'
'forum_'
'form'
'fool_'
'focuses_'
'flotil'
'fixes_'
'fit'
'finančně_'
'fin_'
'fiction_'
'festival'
'fear'
'farmaceutick'
'familiar_'
'failures_'
'factory_'
'fabulous_'
'eč'
'eze_'
'expressing_'
'exporting_'
'experiment'
'experiencing_'
'exempl'
'exeku'
'exe'
'exceptions_'
'exact_'
'etí_'
'etu'
'eska'
'esen'
'ervati'
'eric'
'eria_'
'eradicat'
'epic'
'environmentally_'
'entrust'
'entní'
'enic'
'enhancing_'
'enhanced_'
'engagement_'
'energetická_'
'energeticky_'
'endur'
'ency'
'encrypt'
'encou'
'emu_'
'employed_'
'empire_'
'elsk'
'els_'
'elor_'
'elli'
'elity_'
'elegance_'
'electoral_'
'elderly_'
'ekonomové_'
'ekonom_'
'ehl'
'egyptsk'
'ege'
'eg_'
'efficiently_'
'effe'
'efektivně_'
'efekt'
'ees_'
'earn_'
'ear_'
'ean'
'důvěř'
'důvěra_'
'důkaz_'
'dělo'
'díval'
'dílo_'
'délk'
'déle_'
'dávko'
'dál'
'dumpingu_'
'duc'
'druž'
'drobn'
'doš'
'dovnitř_'
'doufat_'
'dostupných_'
'dospělý_'
'dosahova'
'dopravních_'
'doposud_'
'doporuči'
'dopo'
'doplňuj'
'dopadu_'
'donor'
'domácích_'
'domác'
'domnívají_'
'dokázali_'
'doká'
'dokument'
'dokončení_'
'dodáv'
'dodal_'
'dock_'
'docháze'
'dobou_'
'dnešním_'
'dluhy_'
'disturb'
'distributor'
'distinct_'
'dist'
'disponuj'
'dispe'
'discount_'
'dip'
'dilem'
'dicta'
'dešt'
'devět_'
'develop'
'devalvac'
'devalu'
'dev_'
'detention_'
'detected_'
'desirable_'
'describes_'
'descend'
'depress'
'dependency_'
'denc'
'demonstrat'
'demokraté_'
'demographic_'
'demanded_'
'delighted_'
'definovat_'
'definovan'
'defending_'
'defend'
'declare_'
'decl'
'deadl'
'dated_'
'daného_'
'dale'
'cím'
'cyber'
'ction'
'crops_'
'crash_'
'cos'
'cope_'
'convict'
'convey'
'convergence_'
'convention'
'container'
'consulting_'
'constraints_'
'constitutes_'
'confront_'
'confidential_'
'confer'
'condition'
'conci'
'comprising_'
'compose'
'compli'
'complaints_'
'competing_'
'compete_'
'compe'
'commu'
'cm'
'cloud_'
'clothing_'
'clos'
'ckém'
'ckého_'
'cki'
'cker_'
'cked_'
'ciz'
'civilist'
'cial'
'chytr'
'church_'
'chronic_'
'chrom'
'chozí_'
'chla'
'chee'
'chap'
'chao'
'chamber'
'chains_'
'certification_'
'certificates_'
'centres_'
'celku_'
'celkovou_'
'cele'
'cca'
'cart'
'carriers_'
'career_'
'capabilities_'
'camp_'
'calendar_'
'calculati'
'březn'
'byrokracie_'
'brows'
'brow'
'bron'
'britský'
'branches_'
'bour'
'bottle'
'borne_'
'bonus_'
'bojov'
'bní'
'blízk'
'bish'
'bis'
'berou_'
'bench'
'bei'
'bec_'
'beautifully_'
'bc'
'bby_'
'batter'
'bathtub_'
'bathrooms_'
'barev'
'balances_'
'baj'
'ači'
'azuj'
'azil'
'az_'
'aye'
'avn'
'autumn_'
'automobilů_'
'automatiz'
'authoritarian_'
'authori'
'audiovisual_'
'attended_'
'atmosféře_'
'ational_'
'atick'
'assure_'
'assur'
'assum'
'assi'
'asijský'
'arv'
'aru'
'artist'
'arm'
'ark'
'archiv'
'arb'
'appreciated_'
'apologi'
'aparát'
'aného_'
'antibioti'
'anni'
'anis'
'angličtin'
'angl'
'anese_'
'anem'
'ando'
'ance'
'analog'
'americkým_'
'amen'
'alismu'
'alis'
'alin'
'alarming_'
'alarm_'
'ains_'
'agi'
'adě'
'ady_'
'admitted_'
'adhere'
'additive'
'acted_'
'acqui'
'accent'
'academic_'
'abuses_'
'abundan'
'absolutoria_'
']]"'
'Zvláštní_'
'Zar'
'Zan'
'Zaji'
'You'
'Xi'
'Wood'
'Wit'
'Wien_'
'Whi'
'Whatever_'
'Week'
'Walk'
'WLAN_'
'WASHINGTON_'
'Vždy'
'Všechno_'
'Vítám_'
'Vulkán'
'Vu'
'Vra'
'Volkswagen_'
'Vlád'
'Vipassana_'
'Viděl'
'Video_'
'Vic'
'Via_'
'Vezm'
'Vatican_'
'VP'
'Určit'
'Um'
'UTC_'
'Té'
'TÉMATA_'
'Typ_'
'Twi'
'Turkmenist'
'Turk'
'Try'
'True_'
'Tourism_'
'Top'
'Ton'
'Tokyo_'
'Tin'
'Tibetan_'
'Things_'
'Texas_'
'Test'
'Tell_'
'Taiwan_'
'TS'
'TOTO_'
'Sw'
'Svat'
'Sus'
'Support_'
'Students_'
'Strasbourg_'
'Stockholm'
'Stei'
'Stačí_'
'Stanov'
'Stal'
'Spen'
'Spee'
'Sov'
'Současně_'
'Sofi'
'Slyšel'
'Sky'
'Simpl'
'Silk'
'Sile'
'Sett'
'Semi'
'Secure_'
'Sd'
'Saturday_'
'SB'
'Rum'
'Ross'
'Rose'
'Rok'
'Rog'
'Rei'
'Regionální_'
'Ref'
'Reception_'
'Reagan'
'Rakousk'
'Radi'
'RAID'
'Qui'
'Queen_'
'Qa'
'Půj'
'Přitom_'
'Pákistánu_'
'Právnické_'
'Práv'
'Projekt'
'Professional_'
'Process'
'Priv'
'Prior'
'Print'
'Pravomoc_'
'Pravd'
'Pozměňovací_'
'Povol'
'Potřebuj'
'Politi'
'Podí'
'Pel'
'Peace_'
'Past'
'Partner'
'Parking_'
'Pale'
'Pacific_'
'Paci'
'PM_'
'Ovšem_'
'Outs'
'Otázk'
'Oprava_'
'Ombudsman_'
'Ods'
'Oce'
'OL'
'Nástroj_'
'Nova'
'Nos'
'Nesmíme_'
'Nee'
'Nebylo_'
'Nazi_'
'Nation'
'Nai'
'Nabucco_'
'NX_'
'NM'
'Měs'
'Moskv'
'Morocco_'
'Montáž_'
'Monta'
'Mohou_'
'Mohammed_'
'Mod'
'Mlad'
'Minim'
'Mexiko_'
'Metropol'
'Merkel_'
'Max'
'Marian'
'Mao_'
'Mano'
'Mac_'
'Lun'
'Lui'
'Live'
'Lithuania_'
'Lind'
'Liber'
'Lev'
'Lee_'
'Lat'
'Lap'
'LONDON_'
'Kyoto_'
'Kv'
'Konz'
'Kontakt'
'Kongres'
'Kome'
'Kit'
'Každá_'
'Kaza'
'Kai'
'KOM_'
'Jistěže_'
'Jewish_'
'Jenn'
'Jednací_'
'Japonska_'
'Janeway_'
'Izraeli_'
'Islamist_'
'Io'
'Investment_'
'Internetu_'
'Int'
'Ing_'
'Indií_'
'Ill'
'ISA'
'IND_'
'IB'
'Hro'
'Honor_'
'Holocaust_'
'Hill_'
'High'
'Heli'
'Hej_'
'Hat'
'Harvard_'
'Harbo'
'Hammam_'
'Haiti_'
'HS_'
'HD'
'Gy'
'Guide_'
'Gordon'
'Gold'
'Gir'
'Geo'
'Galway_'
'GN'
'Foun'
'Fortunately_'
'Florida_'
'Fli'
'Fischer_'
'Finn'
'Filip'
'Fed'
'Fair'
'Fail'
'End_'
'EHP_'
'Důvod'
'Děl'
'Dubrovnik_'
'Druhým_'
'Dovo'
'Documentation_'
'Document'
'Doc'
'Dim'
'Dictionary_'
'Desk'
'Democracy_'
'Deep_'
'Declaration_'
'Datum_'
'Cycling_'
'Cut'
'Crowne_'
'Cra'
'Cove'
'Court'
'Cord'
'Copa'
'Communication_'
'Comm'
'Collection_'
'Clintonov'
'Clearly_'
'Claud'
'Class_'
'Clai'
'Cl'
'Chorvatsko_'
'Chart'
'Cav'
'Carn'
'CZK_'
'COD_'
'CK'
'Bíl'
'Brie'
'Bow'
'Bosn'
'Boro'
'Borde'
'Boasting_'
'Blue_'
'Blai'
'Bill'
'Bes'
'Batt'
'Barb'
'Bankomat_'
'Bang'
'Background_'
'Bach'
'BY'
'BG_'
'Autom'
'Arábie_'
'Arma'
'Applica'
'Appar'
'Any'
'Analy'
'Amo'
'Ama'
'Adv'
'Addi'
'Account'
'Abbás'
'AD_'
'='
': +_'
'5hvězdičkový_'
'42'
'21st_'
'208'
'203_'
'1990s_'
'1967_'
'1960_'
'156'
'125'
'122'
'107_'
'101_'
'.)._'
'.) _'
'. .'
'. ) _'
'* ..._'
')) '
') .'
'&'
'%)'
'$'
' · _'
' |_'
' )'
'� _'
'€'
'…]'
'х'
'ра'
'не'
'г'
'ан'
'α_'
'ží'
'žádoucí_'
'žou_'
'životně_'
'životním_'
'živo'
'žive'
'žila_'
'ženou_'
'žene'
'Žel'
'ůže_'
'šť_'
'šířit_'
'štěd'
'špičk'
'špatná_'
'širším_'
'šesti'
'šance_'
'Švédsko_'
'Španělsk'
'Španěl'
'ş'
'říše'
'řské_'
'řis'
'řešil'
'řetn'
'řadi'
'ŘE'
'ňovan'
'ěli'
'čínský_'
'čtě'
'čtvrtek_'
'čnímu_'
'čné'
'čnou_'
'čko_'
'čet'
'čel_'
'čc'
'Čínu_'
'Čí'
'ČL'
'ýž'
'ýr'
'ýli'
'úředníci_'
'účty_'
'účinněj'
'účinných_'
'účelov'
'účastníky_'
'úz'
'úspěšné_'
'úspory_'
'úsměv_'
'ún'
'ózní_'
'íš'
'íval'
'íná'
'ídlen'
'íc'
'íbil'
'éra'
'éme'
'än'
'ářs'
'áře_'
'ázel'
'áro'
'áre'
'ánk'
'áhn'
'ádřil'
'ádají'
'ácení_'
'ábi'
'ÍN'
'zůstaly_'
'zůstal_'
'zřídi'
'zúčastněným'
'získá_'
'zář'
'záznam_'
'závislé_'
'závažn'
'zásadně_'
'západním'
'zákoníku_'
'zákonodárc'
'zájmům_'
'zvýšené_'
'zvíře'
'zvláštním_'
'zveřejni'
'zve'
'ztratil_'
'ztr'
'zprostředkov'
'zpochybň'
'zovan'
'zno'
'zneužív'
'znepokojuj'
'zmírnění_'
'zmí'
'zmr'
'zmo'
'zme'
'zlom'
'zlepšování'
'zkus'
'zkrac'
'zkoum'
'zkontrolovat_'
'zjišťov'
'zjistí'
'zil'
'zet'
'zer_'
'zelenin'
'zdánlivě_'
'zdá'
'zdravotně_'
'zdravotnické_'
'zbývá_'
'zbav'
'zařízen'
'zační'
'zača'
'zaznamenává'
'zaznamenán'
'zavedením_'
'zau'
'zasla'
'zare'
'zapoj'
'zaměřený_'
'zaměřený'
'zaměření'
'zamít'
'zamr'
'zakazuje_'
'zajistila_'
'zajistil'
'zajat'
'zahrnující_'
'zahrnout_'
'zahl'
'zaha'
'zadán'
'zadr'
'zabýval'
'yte'
'ysle'
'yj'
'ycl'
'yards_'
'xt_'
'xio'
'xi_'
'xel'
'xed_'
'xe_'
'wooden_'
'wle'
'withstand'
'wisdom_'
'wire'
'wiki'
'wie'
'whit'
'wellbeing_'
'weaker_'
'watch'
'was'
'wan_'
'vůdc'
'vším'
'větším_'
'věnov'
'vější'
'vědč'
'vědom_'
'vědeckých_'
'vědc'
'výzvám_'
'významná_'
'výsl'
'výsad'
'výrazněj'
'výjimečný'
'víry_'
'vévod'
'váz'
'váha'
'vzruš'
'vzork'
'vznikla_'
'vznik_'
'vzhl'
'vzdá'
'vza'
'vyžádá'
'vyře'
'vyčleněn'
'vyzvat_'
'vyzval_'
'využil'
'vytě'
'vytvořili_'
'vytvořen_'
'vysvětluje_'
'vyrovnáva'
'vyrovna'
'vypracovan'
'vypořádat_'
'vypadal'
'vylo'
'vykresl'
'vykonává_'
'vykazuj'
'vyjasn'
'vyhrá'
'vyhledáva'
'vydávání_'
'vydáva'
'vstřícn'
'vstoupila_'
'vrt'
'vrstv'
'vrcholu_'
'vrcholn'
'vrat'
'voři'
'vowels_'
'volné_'
'vojáci_'
'void_'
'voice'
'vodách_'
'vnímání_'
'vná'
'vnitřním_'
'vnitrostátním_'
'vni'
'vládami_'
'vlastn'
'vklád'
'visas_'
'viruses_'
'vine'
'ville_'
'vil_'
'več'
'vese'
'verifi'
'venkov'
'vene'
'velvyslan'
'velkém_'
'veliko'
'velik'
'vek_'
'vede'
'vec'
'vazb'
'vatel'
'variation'
'varia'
'vaný_'
'valley_'
'užívá'
'ušt'
'ušetř'
'uální_'
'uvědomuje_'
'uvádě'
'uvolnění_'
'uvedeným_'
'uvedený_'
'uvedeném_'
'uté'
'uty_'
'utváře'
'utrp'
'utr'
'utiliz'
'uter'
'usu'
'ustí'
'ustanoven'
'uspokojení_'
'usmíření_'
'určí_'
'urč'
'urs_'
'uro'
'uriti'
'upuj'
'upe'
'unwilling_'
'unstable_'
'unse'
'unpre'
'uno_'
'uno'
'unilateral_'
'unic'
'uncomfortable_'
'uncertain'
'unc'
'uměleck'
'umožnila_'
'umbi'
'ultra_'
'uložení_'
'ulk'
'ulič'
'ukládání_'
'ujícím'
'ujícího_'
'ujiš'
'uja'
'udržuj'
'ucí_'
'uca'
'ubí'
'uby'
'ubn'
'tš'
'těžko'
'těžit_'
'tění_'
'tón'
'tím'
'témat_'
'táv'
'táhl'
'tyran'
'typů_'
'typick'
'twentieth_'
'tvůrci_'
'tváři'
'tvrdit_'
'tvoj'
'tuku_'
'tted'
'tržního_'
'trži'
'trvalého_'
'truc'
'trpěl'
'trends_'
'trati'
'transpose'
'transport'
'transformac'
'transferred_'
'transak'
'toč'
'tování'
'touch'
'totožnost'
'torn'
'topic_'
'tonov'
'tonnes_'
'toleranc'
'tment'
'tlumoč'
'tičtí_'
'tivních_'
'tivi'
'tive'
'titut'
'titu'
'tionar'
'timeline_'
'tim'
'tila_'
'tifi'
'tier'
'tie_'
'tidy_'
'thick'
'thera'
'terén'
'teroristický'
'teroristické_'
'termín_'
'terate'
'terapi'
'tene'
'template_'
'tema'
'tels'
'tehdejší'
'techniku_'
'tebou_'
'teams_'
'teach_'
'tched_'
'tc'
'talent'
'tablet_'
'sý'
'síle_'
'sídlí'
'séri'
'sázce_'
'symptom'
'swo'
'switch'
'sweet'
'swap'
'světel'
'svobodně_'
'svobod_'
'suverénní'
'sustain'
'suspension_'
'suspend'
'super_'
'suffer'
'succeeded_'
'subve'
'substantially_'
'subsequently_'
'středně'
'stř'
'státním'
'styl'
'styk'
'stupeň_'
'studios_'
'strávil'
'struktur_'
'struggl'
'strova'
'strategické'
'strat'
'strann'
'ston_'
'stole_'
'stojí'
'stimulac'
'stif'
'stev'
'stepped_'
'steady_'
'starship_'
'stanovov'
'stanovisku_'
'stagnation_'
'sses_'
'srovnáv'
'spácha'
'správná_'
'spotřební_'
'spotřebitelům_'
'spor_'
'spont'
'sponsor'
'společnostmi_'
'splá'
'spekulativní'
'specimen'
'specifické_'
'specifick'
'specific'
'spar'
'sovětské'
'součásti_'
'souvis'
'souhlas'
'sooner_'
'solven'
'solid'
'socialism'
'sobe'
'sný'
'sné_'
'snižovat_'
'snižov'
'směřuj'
'směrn'
'smírčí'
'smi'
'sman_'
'slušn'
'sluneční'
'slun'
'složitý'
'složité'
'složito'
'slowdown_'
'slip'
'slide'
'sleep'
'skvělou_'
'skončí_'
'skládá_'
'skeptic'
'sj'
'siv'
'siste'
'sis'
'sincere'
'simultaneously_'
'simulat'
'sim'
'sile'
'sila'
'sid'
'should'
'shor'
'shock'
'ship'
'shares_'
'sexual_'
'sev'
'settle_'
'settl'
'sestavov'
'sequence_'
'sensible_'
'sena'
'selhá'
'sekul'
'seemingly_'
'sedí'
'sections_'
'scén'
'script_'
'schůz'
'schvál'
'schodek_'
'schen'
'scheduled_'
'scan_'
'sbír'
'sburg_'
'sbl'
'saw'
'sav'
'sarge_'
'sank'
'samp'
'samotného_'
'samot'
'samostatný'
'sage'
'sac'
'rána_'
'rys'
'rychl'
'rybolov_'
'ryb_'
'ručně_'
'ruč'
'rusti'
'rup'
'rst'
'ročního_'
'rozvojové'
'rozvinuté_'
'rozvinu'
'rozumu_'
'rozumný'
'rozumné_'
'rozsudk'
'rozměr_'
'rozkaz_'
'rozhovorů_'
'rozhodl'
'rozen'
'rová'
'rou_'
'ropný'
'rooftop_'
'roll_'
'rodinné_'
'robust_'
'rni'
'rme'
'rl_'
'ritu'
'rien'
'riche'
'rever'
'restaurací_'
'respond'
'resolving_'
'resist'
'resilien'
'resident_'
'resc'
'reproduc'
'representation_'
'replacement_'
'repeal'
'reor'
'reo'
'remedi'
'remark'
'relate_'
'rekonstrukc'
'rejstřík'
'registra'
'regionálního_'
'refuse_'
'refrain_'
'reformní'
'reflection_'
'refine'
'referendu'
'redress_'
'reciproc'
'receives_'
'reba'
'reb'
'realis'
'readin'
'ration'
'rare'
'rance_'
'rain_'
'radu_'
'quit_'
'quin'
'quet'
'původního_'
'působit_'
'působení_'
'půdě_'
'příznaky_'
'přítomnost_'
'přít'
'příslušná_'
'příměří_'
'příjemné_'
'přícho'
'přiznal'
'přispěje_'
'přirozeně_'
'připravuj'
'připojit_'
'připoj'
'přine'
'přimět_'
'přijímá'
'přije'
'přijatelné_'
'přidělen'
'přiděl'
'přidané_'
'přiblíži'
'přibliž'
'přezk'
'převyšují'
'převeden'
'přesunout_'
'přest'
'přesný'
'přeshraničních_'
'přenos_'
'přen'
'přeměn'
'překážkou_'
'přek'
'předvolán'
'předst'
'předsednictv'
'předpokládal'
'přední'
'předk'
'předešl'
'předejít_'
'přede'
'předcházející'
'přebytky_'
'pó'
'písmeno_'
'píse'
'pír'
'pár'
'pádně_'
'pursuit_'
'pulled_'
'pull'
'ptáků_'
'prvotřídní'
'prv'
'pru'
'prsty_'
'proží'
'provoz'
'province'
'proves_'
'protějšk'
'prostorn'
'prostitu'
'proslul'
'propuštění_'
'propriet'
'pronounced_'
'promluv'
'prominent_'
'projí'
'projeví_'
'projedna'
'prohr'
'prohlásit_'
'programov'
'professor'
'professionali'
'profesní'
'produkte'
'prodloužení_'
'probíhající'
'privileged_'
'privatiz'
'prima'
'prezent'
'prevented_'
'prevail'
'prete'
'preserved_'
'premiér_'
'pravidly_'
'pravd'
'praktický'
'pracujících_'
'pracující_'
'pracují_'
'prach'
'ppi'
'požadovan'
'počí'
'pozorně_'
'pozměněné'
'pozic'
'pozem'
'pozastavi'
'pozastav'
'pověř'
'pověst'
'povodn'
'povinné_'
'používan'
'použita_'
'použi'
'poukáz'
'pouhým_'
'pouhý'
'potřebná_'
'potřebn'
'potěšen'
'potýkají_'
'potýk'
'potvrzují'
'potvrzen'
'potravinové'
'potlačov'
'potaz_'
'posuzova'
'postupuj'
'postu'
'postižení_'
'postar'
'poslouch'
'poskytován'
'poskytoval'
'poskytl_'
'posilova'
'portray'
'porodnost'
'populism'
'popsán'
'poprav'
'pop_'
'pome'
'polské'
'polovina_'
'policejní'
'pokusy_'
'pokračují'
'pokrač'
'pohon'
'pohn'
'pohlíž'
'podvodn'
'podst'
'podrobné_'
'podrob'
'podporoval_'
'podpor_'
'podobných_'
'podnít'
'podal'
'pocházejí'
'poch'
'pobídky_'
'plánem_'
'plynovod'
'plug'
'plný_'
'plein_'
'pledge'
'platných_'
'plastic'
'plan'
'placen'
'pl_'
'pito'
'pirát'
'pin_'
'pilíř'
'picked_'
'phones_'
'phol'
'philosoph'
'phen'
'perv'
'persist'
'pero_'
'perm'
'performing_'
'peněžní'
'penz'
'peni'
'pause'
'patřičn'
'patent_'
'passes_'
'participa'
'parlamentních_'
'parity_'
'pare'
'papers_'
'panuj'
'palestinského_'
'pale'
'painte'
'paint'
'pada'
'ožit'
'očkov'
'očit_'
'očil_'
'očekáv'
'oznámit_'
'oznámil_'
'oznámil'
'owe'
'ový'
'ovo_'
'ovlivňující'
'oven'
'ovaném'
'ovaného_'
'ovací'
'otic'
'osvědč'
'osvobození_'
'osv'
'ostmi_'
'ostech_'
'osph'
'osobní'
'oso'
'osláv'
'osk'
'ort_'
'orno'
'orie'
'orgánem_'
'organizova'
'opř'
'opravn'
'opovr'
'opoli'
'opn'
'opil'
'operaci_'
'opens_'
'openly_'
'opatřeními_'
'opak'
'oot'
'oo_'
'omn'
'omezování_'
'omezil'
'ome'
'ologické'
'oll'
'olive_'
'olin'
'okamžité'
'ohe'
'oev'
'odvětví'
'odvedl'
'odrůd'
'odlo'
'odlišno'
'odj'
'odhaduje_'
'odeslán'
'odchylk'
'odchodu_'
'odc'
'ochranné_'
'oceněn'
'occupied_'
'obě'
'občanských_'
'obí'
'obává'
'obyčejn'
'obtaining_'
'obstruct'
'obrátil'
'obranné_'
'obli'
'oble'
'obdržel'
'obc'
'obav_'
'obal'
'německé'
'některým_'
'některého_'
'několikrát_'
'něko'
'někdejší'
'nějakého_'
'nóz'
'nízká_'
'nízkou_'
'nízko'
'návrhem_'
'nástupu_'
'následuj'
'náročné'
'národnostní'
'námě'
'nádo'
'nádherné'
'náchyln'
'nábytk'
'nábytek_'
'nábožensk'
'nynějš'
'ntro'
'ntní_'
'nstal'
'nského_'
'nsk'
'noční_'
'novější'
'novému_'
'north'
'nominal_'
'nomen'
'nohy_'
'noho'
'ničení_'
'nizozem'
'niz'
'nion'
'nila_'
'nici_'
'nich'
'ngt'
'ngly_'
'neří'
'neřek'
'nezn'
'nezast'
'nezas'
'nezaměstnan'
'nevýhod'
'nevyz'
'nevyhnutelné_'
'nevyd'
'neutral'
'neur'
'networking_'
'neto'
'nesouhlasi'
'nesmírn'
'neslyšel'
'neschopnosti_'
'nervózn'
'nerozum'
'nero'
'neprav'
'nepotřebuje'
'neposl'
'nepodporuj'
'neplatné_'
'nent'
'neklid'
'nejmodernější'
'nejle'
'neglect'
'neexistují_'
'need'
'nedávný'
'nedostal'
'nedojde_'
'neck_'
'nechtěl_'
'necessity_'
'necel'
'nearest_'
'ncov'
'nch_'
'nces'
'našli_'
'nařídi'
'nazývá'
'navrhnout_'
'nauč'
'narůst'
'narušení_'
'narozen'
'naro'
'napsa'
'napln'
'nant'
'nakládání_'
'nahoře_'
'nadě'
'nadnárodních_'
'nadnárodní_'
'nadm'
'nadcházející'
'nadac'
'nacionalismu'
'nabídl'
'měří'
'měři'
'měření_'
'měsíční'
'měkk'
'místního_'
'místn'
'mírně_'
'más_'
'myth'
'myslíš_'
'muslim'
'msk'
'mpt'
'mp3_'
'možný_'
'mořské_'
'moř'
'motivova'
'mora'
'mood_'
'monopoli'
'monarch'
'modifikovan'
'modif'
'moderním_'
'modern'
'modely_'
'mocně'
'mnohostrann'
'mnohokrát_'
'mmo'
'mistakes_'
'misc'
'minulého_'
'minimali'
'ming'
'mineral'
'mimosoudní'
'mile_'
'mila'
'mens'
'menov'
'mechaniky_'
'meantime_'
'md'
'maďarsk'
'matern'
'materiál_'
'masa'
'married_'
'marr'
'marn'
'marginal'
'manual_'
'mandatory_'
'malým_'
'malicious_'
'mais_'
'mafi'
'm2_'
'lím_'
'léčba_'
'lékař_'
'lázní'
'lying_'
'lut'
'lusive_'
'lst'
'loy'
'lowe'
'lose'
'lom'
'lobbi'
'loaded_'
'lita'
'lips'
'lion'
'linuxov'
'likvidit'
'likvidac'
'lidstv'
'liberalizace_'
'liable_'
'lhůt'
'ležel'
'levných_'
'lever'
'lest_'
'lepším'
'leni'
'legitimit'
'legend'
'lednu_'
'layout_'
'laun'
'lau'
'latin'
'landing_'
'lande'
'lahv'
'lad_'
'křesťan'
'kódu_'
'káž'
'kyt'
'kvalifik'
'kut'
'kupříkladu_'
'kuje_'
'krátkodobý'
'krátko'
'krásný'
'krále'
'král'
'krizov'
'kritizova'
'koči'
'kostel'
'kori'
'kopírov'
'koordinaci_'
'koně_'
'konve'
'kontrolova'
'konstruov'
'konkur'
'konkrétním'
'kong'
'konfe'
'komunity_'
'komodit_'
'komisařk'
'komfortním_'
'komfort_'
'kolegům_'
'kolaps'
'koho_'
'kno'
'knihovny_'
'kmenov'
'km'
'klíčovým_'
'klíč'
'klidné'
'kist'
'kin_'
'kei'
'kdežto_'
'kb'
'každodenní'
'katol'
'kapitalistick'
'kapitalismu_'
'kampan'
'kalendář'
'jádrem_'
'juice_'
'jmenování_'
'jistá_'
'jistoty_'
'jistotu_'
'jem'
'jek'
'jeden'
'jasno'
'ičku_'
'izolaci'
'ix_'
'itor'
'iter'
'ite_'
'iste'
'issa'
'iss'
'isolated_'
'isla'
'irr'
'ique_'
'ioni'
'ině_'
'inzul'
'investory_'
'investicím_'
'investic'
'invent'
'intimate_'
'interpretation_'
'internal'
'interm'
'interakc'
'interaction'
'intends_'
'inta'
'int_'
'int'
'instruct'
'instalac'
'inovativní'
'inject'
'initiated_'
'init'
'inhibitor'
'inherit'
'informuj'
'inflict'
'infekc'
'inex'
'inevitable_'
'ines_'
'inely_'
'industri'
'indu'
'indicates_'
'incredibl'
'impul'
'imposing_'
'impos'
'immuni'
'imet'
'ilo'
'illustrat'
'illness'
'iku'
'ijte_'
'igu'
'idit'
'icio'
'ibut'
'iamentar'
'iad'
'hájit_'
'hys'
'hyb'
'hut'
'huje_'
'hrubého_'
'hrozby_'
'hrab'
'hovořil_'
'hosta'
'hospitals_'
'hospital_'
'hora'
'hoping_'
'homo'
'hodnotí'
'hodnotách_'
'hodnotn'
'hodil'
'hnojiv'
'hni'
'hne'
'hlasováním_'
'hla_'
'historického_'
'hex'
'hemi'
'helm'
'hane'
'handled_'
'hack'
'habitación_'
'gé'
'gz'
'guidance_'
'guard_'
'graphy_'
'grap'
'grants_'
'grant'
'gradual_'
'grade'
'good'
'gni'
'globálním'
'glamo'
'ghte'
'geometr'
'gentl'
'generál'
'general'
'generací_'
'garde'
'gall'
'fü'
'fér'
'fying_'
'fulfil'
'ful'
'fric'
'frau'
'fran'
'fragment'
'fraction_'
'format'
'forma_'
'forge'
'foresee'
'fool'
'flexibiln'
'fist'
'financován'
'finances_'
'filt'
'filesystem'
'fikac'
'fferen'
'fen_'
'federace_'
'feared_'
'fatt'
'fas'
'fan_'
'faktick'
'fakta_'
'faithful_'
'fair'
'eye'
'exte'
'explanation_'
'experiments_'
'exp'
'exh'
'exercise'
'exempt_'
'exclud'
'excite'
'exces'
'ew_'
'evrop'
'evolution_'
'etil'
'establishments_'
'estab'
'essen'
'eral'
'envi'
'env'
'entů'
'ently_'
'enst'
'ens'
'enorm'
'enlarge'
'enl'
'enjoying_'
'ening_'
'enga'
'enera'
'eme'
'embryo'
'embrac'
'embe'
'elite_'
'eli_'
'elem'
'elektronických_'
'elektro'
'ekonomů_'
'eil'
'efektivní'
'eed'
'edov'
'ected_'
'ecké_'
'echno'
'ece'
'ead_'
'důkazní'
'dřevo'
'děn'
'děj'
'dív'
'dávek_'
'dávat_'
'dám'
'dyn'
'dvoustrann'
'dvojnásob'
'dvoji'
'dvacát'
'dvaceti_'
'dun'
'dule'
'dské'
'drought'
'dress'
'drastic'
'downturn_'
'dovozní'
'dovat_'
'dotčený'
'dosáhneme_'
'dostáva'
'dostatečn'
'dostaly_'
'doprav'
'doplněn'
'door'
'donation'
'domácího_'
'domně'
'domina'
'dole'
'dolar'
'dojem_'
'dohodnout_'
'doh'
'dogma'
'dlouhodobého_'
'dlo_'
'dlo'
'dla'
'dky'
'dividend'
'distributi'
'distorti'
'dispose'
'displace'
'diskutuje'
'diskutova'
'diskr'
'disintegrat'
'disg'
'discover_'
'disappeared_'
'directory_'
'diplomat'
'dioxide_'
'dictionaries_'
'dictator'
'diagnostic'
'diag'
'dia_'
'deš'
'destroy'
'designat'
'deser'
'dere'
'depr'
'dens'
'denie'
'demokratickým'
'delu'
'delight'
'deliberate'
'delegations_'
'delegate'
'dela'
'degrad'
'defor'
'definice_'
'definic'
'defens'
'deemed_'
'deduct'
'decree'
'declined_'
'debaty_'
'debatu_'
'deadly_'
'dcer'
'das_'
'darkness_'
'dament'
'dalekosáhl'
'daj'
'dairy_'
'dac'
'cítím_'
'císař'
'církev'
'czech'
'cyklu_'
'custom'
'criticis'
'court'
'corresponde'
'coordinat'
'cooperati'
'cooke'
'controversial_'
'controlling_'
'consist'
'conscious'
'connect'
'confrontation_'
'concentrati'
'complimentary_'
'compile'
'competitors_'
'colo'
'collapse'
'closure_'
'clash'
'cks'
'ción_'
'cizinc'
'civilians_'
'cite'
'cit_'
'cif'
'chybě'
'chudší'
'chroni'
'chovat_'
'chodi'
'cher_'
'chemický'
'cheaper_'
'characteristics_'
'change'
'chances_'
'champion'
'challenging_'
'cet'
'certifika'
'certified_'
'cepti'
'cenách_'
'celoživotní'
'celosvětově_'
'celková_'
'celebration'
'cease'
'casual'
'cast_'
'capitali'
'cake_'
'café'
'buy'
'burz'
'buj'
'bug'
'budoucím'
'budoucna_'
'brutáln'
'brutal_'
'brus'
'broad'
'brid'
'breathtaking_'
'bookmark'
'book'
'bolestn'
'bole'
'blízké'
'blá'
'blue'
'blu'
'blind'
'blend'
'blank'
'bird'
'biologické'
'bilion'
'bezpochyby_'
'bezp'
'beze'
'bers'
'bern'
'bem_'
'belong_'
'believ'
'begin'
'beer_'
'bearing_'
'bean_'
'bbe'
'barb'
'balík_'
'bah'
'ačního_'
'azu_'
'azova'
'avé'
'avy_'
'autonomní'
'automati'
'aur'
'auditor'
'audi'
'até_'
'attitudes_'
'attacked_'
'ator'
'atiz'
'ativní_'
'assumption_'
'associations_'
'aspoň_'
'asp'
'asist'
'ascen'
'articulat'
'arsk'
'arro'
'arra'
'arr'
'arg'
'architekt'
'archi'
'appea'
'apparently_'
'antly_'
'anglick'
'angažova'
'ang_'
'ander_'
'ande'
'amend_'
'ambice_'
'amb'
'alternativních_'
'allowance_'
'alkoholu_'
'alkohol'
'alities_'
'alist'
'alia'
'ald_'
'akční_'
'aktualiz'
'akcí_'
'akcionář'
'akademi'
'ají'
'aja'
'ahy_'
'ahuje_'
'aho'
'agre'
'agon'
'africké_'
'advise_'
'advers'
'adres'
'administrativy_'
'administrativní_'
'administrativní'
'adju'
'adit_'
'adem'
'addresses_'
'actor'
'activists_'
'achievements_'
'accused_'
'accr'
'aca'
'abstain'
'absolutní'
'abr'
'aboard_'
'abandon_'
']]'''
'\u'
'Zř'
'Západě_'
'Západ'
'Základní'
'Způsob'
'Zlat'
'ZIP_'
'Yugoslav'
'XML_'
'Word_'
'Word'
'Wir'
'Wie'
'Wel'
'Watch_'
'Wales'
'Waldner'
'WOT_'
'WAR'
'Vů'
'Výsledkem_'
'Výrob'
'Vážn'
'Vysok'
'Vyberte_'
'Vstup_'
'Von'
'Vlády_'
'Vladim'
'Vin'
'Villa'
'Vig'
'Vedle_'
'Vari'
'VIII_'
'VAT_'
'Uz'
'Update'
'Until_'
'Unless_'
'Ukrajina_'
'UNESCO_'
'UM'
'Tímto_'
'Tyr'
'Typ'
'Turn'
'Turi'
'Trevi'
'Travel'
'Translate_'
'Train'
'Tot'
'Tisk'
'Throughout_'
'Thomas'
'Thi'
'Tex'
'Tentokrát_'
'TM'
'TE_'
'TER'
'TB'
'Sýri'
'System'
'Středo'
'Stub'
'Strá'
'Stru'
'Str'
'Statisti'
'Stand'
'Srbsko_'
'Spra'
'Sport_'
'Společně_'
'Spojeném_'
'Soval_'
'Současn'
'Source_'
'Soubor_'
'Sofia_'
'Slavic_'
'Sib'
'Ship'
'She'
'Servi'
'Serg'
'Sco'
'Say'
'Saxon_'
'Save_'
'Saa'
'SR_'
'SPE'
'SDR_'
'Rumunsk'
'Rozvoj'
'Rozs'
'Rozpoč'
'Rosa'
'Robert'
'Ris'
'Rig'
'Rica_'
'Rez'
'Republik'
'Representative_'
'Repair_'
'Rena'
'Relax_'
'Registr'
'Regions_'
'Reference_'
'Rambla'
'REP'
'RC'
'RAM'
'Quite_'
'Překlad_'
'Předpoklád'
'Py'
'Publications_'
'Ps'
'Promiň'
'Prok'
'Proh'
'Proce'
'Prezident_'
'Prez'
'President'
'Prav'
'Požad'
'Poss'
'Politici'
'Political_'
'Podn'
'Playa_'
'Pitt'
'Picture'
'Peti'
'Pea'
'Paragraph_'
'Paper_'
'Pala'
'PRA'
'PN'
'PLN_'
'PLA'
'Osv'
'Osobní_'
'Oslo_'
'Orl'
'Origin'
'Orient'
'Opti'
'Offic'
'Och'
'Obě_'
'Obv'
'Obe'
'Násled'
'Náhrad'
'Novi'
'Nort'
'Norma'
'Nico'
'Neus'
'Nen'
'Nejvyšší_'
'Nechce'
'Naštěstí_'
'Nav'
'Nastav'
'Najd'
'Nabíd'
'NOT'
'Myslí'
'Muž'
'Much_'
'Mother_'
'Moldova_'
'Moc'
'Mitchell_'
'Mist'
'Milo'
'Millennium_'
'Mig'
'Mezinárodního_'
'Memory_'
'Mayo'
'Materi'
'Mass'
'Mara'
'Mali'
'Make_'
'Magi'
'Looking_'
'Lip'
'Line_'
'Libert'
'Letos_'
'Leidse'
'League_'
'Late'
'Land_'
'Lady_'
'Ká'
'Kvůli_'
'Kun'
'Kub'
'Králov'
'Kons'
'Kongresu_'
'Kenn'
'Kaz'
'Kau'
'Kanada_'
'Kaliforn'
'KU'
'Jou'
'Jonathan_'
'John'
'Johan'
'Jiné_'
'Jen'
'Jam'
'Jaká_'
'Jake_'
'JI'
'Internetové_'
'Insu'
'Instru'
'Innovation_'
'Initia'
'Info'
'Indians_'
'Ind'
'Ideally_'
'Id'
'IU'
'INT'
'IM_'
'ICES_'
'Hur'
'Hou'
'Hotelový_'
'Hostal_'
'Hollande_'
'Hodn'
'Historic'
'Herzegovina_'
'Head'
'Hea'
'Hadar_'
'HF'
'HAS_'
'Gur'
'Greg'
'Graz'
'Gore_'
'GmbH_'
'Gaz'
'Gast'
'Gali'
'GO'
'Forg'
'Five_'
'Fisheries_'
'Finsk'
'Fen'
'Fatah'
'Fat'
'FRO'
'FO'
'FIN'
'Export'
'Explo'
'Europol_'
'Europ'
'Eth'
'Estonian_'
'Error_'
'Equal'
'Electronic'
'Egyptian_'
'EVROPSK'
'ENT'
'Dž'
'Dveře_'
'Duch'
'Druhý_'
'Down_'
'Dou'
'Domnívá'
'Dol'
'Doh'
'Dobrá_'
'Dlu'
'Dev'
'Det'
'Deco'
'Dai'
'DN'
'Creati'
'Covent_'
'Country_'
'Copy'
'Consult'
'Constitutional_'
'Consensus_'
'Communi'
'Commerc'
'Comb'
'Colum'
'Coll'
'Clea'
'Chyba_'
'Chv'
'Chair'
'Celkov'
'Cash_'
'Cardassi'
'Cann'
'Canc'
'CSA_'
'CN'
'CM'
'CIA_'
'CHA'
'CAT'
'Buď'
'But'
'Bushovy_'
'Bul'
'Budu_'
'Brus'
'Brexit_'
'Brazílii_'
'Brazil'
'Brand'
'Borg'
'Boha'
'Bli'
'Bled_'
'Black'
'Bl'
'Bit'
'Bilbao_'
'Bh'
'Berg'
'Beck'
'Bear'
'Balkán'
'Bai'
'Back'
'Bab'
'BB'
'BA_'
'Ay'
'Ast'
'Asad'
'Archi'
'Aqua'
'Ap'
'Anna'
'Ani'
'Angela_'
'Andr'
'Ande'
'Albert'
'Alb'
'Alan'
'Ahmad'
'Agent'
'Adju'
'Activ'
'Acce'
'ATM_'
'APT_'
'API'
'AF'
'A1'
'>'
'82'
'750_'
'72'
'68'
'53'
'3hvězdičkovém_'
'213'
'210'
'1985_'
'124'
'117'
'113_'
'108'
'104_'
'102'
',"'
') , _'
'") _'
'" | _'
' = '
' /'
' --> _'
'”._'
'’'
'ُ'
'ل_'
'я_'
'ж'
'ер'
'ό'
'ν_'
'λ'
'γ'
'žák'
'žuj'
'žná_'
'život'
'živi'
'žij'
'železnic'
'želez'
'žděn'
'ždy_'
'žan'
'žalo'
'Že_'
'Žadatel_'
'ťu'
'Ťi'
'šíří_'
'švédsk'
'špatného_'
'španělsk'
'šly_'
'školní'
'škodlivý'
'šit_'
'širší'
'široká_'
'širok'
'šifrov'
'šené'
'říva'
'říjn'
'řídil'
'řádku_'
'řují'
'řuje_'
'řečník'
'řetězec_'
'řetězc'
'řes'
'řeky_'
'řekli_'
'řek'
'řadí'
'řadou_'
'Řídící'
'Řada_'
'ňujeme_'
'ňsk'
'ń'
'ěv'
'ěrem_'
'ěná_'
'ěděl'
'čít'
'čísl'
'čtější_'
'čtyři'
'čován'
'čných_'
'čnost_'
'čno'
'čkách_'
[...]
